{
  "version": "1.0",
  "truncation": null,
  "padding": null,
  "added_tokens": [
    {
      "id": 0,
      "content": "[PAD]",
      "single_word": false,
      "lstrip": false,
      "rstrip": false,
      "normalized": false,
      "special": true
    },
    {
      "id": 1,
      "content": "[UNK]",
      "single_word": false,
      "lstrip": false,
      "rstrip": false,
      "normalized": false,
      "special": true
    },
    {
      "id": 2,
      "content": "[BOS]",
      "single_word": false,
      "lstrip": false,
      "rstrip": false,
      "normalized": false,
      "special": true
    },
    {
      "id": 3,
      "content": "[EOS]",
      "single_word": false,
      "lstrip": false,
      "rstrip": false,
      "normalized": false,
      "special": true
    }
  ],
  "normalizer": {
    "type": "Lowercase"
  },
  "pre_tokenizer": {
    "type": "Sequence",
    "pretokenizers": [
      {
        "type": "Whitespace"
      },
      {
        "type": "Digits",
        "individual_digits": true
      }
    ]
  },
  "post_processor": {
    "type": "TemplateProcessing",
    "single": [
      {
        "SpecialToken": {
          "id": "[BOS]",
          "type_id": 0
        }
      },
      {
        "Sequence": {
          "id": "A",
          "type_id": 0
        }
      },
      {
        "SpecialToken": {
          "id": "[EOS]",
          "type_id": 0
        }
      }
    ],
    "pair": [
      {
        "Sequence": {
          "id": "A",
          "type_id": 0
        }
      },
      {
        "Sequence": {
          "id": "B",
          "type_id": 1
        }
      }
    ],
    "special_tokens": {
      "[BOS]": {
        "id": "[BOS]",
        "ids": [
          2
        ],
        "tokens": [
          "[BOS]"
        ]
      },
      "[EOS]": {
        "id": "[EOS]",
        "ids": [
          3
        ],
        "tokens": [
          "[EOS]"
        ]
      }
    }
  },
  "decoder": {
    "type": "WordPiece",
    "prefix": "##",
    "cleanup": true
  },
  "model": {
    "type": "WordPiece",
    "unk_token": "[UNK]",
    "continuing_subword_prefix": "##",
    "max_input_chars_per_word": 100,
    "vocab": {
      "[PAD]": 0,
      "[UNK]": 1,
      "[BOS]": 2,
      "[EOS]": 3,
      "!": 4,
      "\"": 5,
      "#": 6,
      "$": 7,
      "%": 8,
      "'": 9,
      "(": 10,
      ")": 11,
      "*": 12,
      "+": 13,
      ",": 14,
      "-": 15,
      ".": 16,
      "/": 17,
      "0": 18,
      "1": 19,
      "2": 20,
      "3": 21,
      "4": 22,
      "5": 23,
      "6": 24,
      "7": 25,
      "8": 26,
      "9": 27,
      ":": 28,
      ";": 29,
      "=": 30,
      "?": 31,
      "@": 32,
      "[": 33,
      "\\": 34,
      "]": 35,
      "^": 36,
      "_": 37,
      "`": 38,
      "a": 39,
      "b": 40,
      "c": 41,
      "d": 42,
      "e": 43,
      "f": 44,
      "g": 45,
      "h": 46,
      "i": 47,
      "j": 48,
      "k": 49,
      "l": 50,
      "m": 51,
      "n": 52,
      "o": 53,
      "p": 54,
      "q": 55,
      "r": 56,
      "s": 57,
      "t": 58,
      "u": 59,
      "v": 60,
      "w": 61,
      "x": 62,
      "y": 63,
      "z": 64,
      "{": 65,
      "}": 66,
      "~": 67,
      "": 68,
      "": 69,
      "": 70,
      "": 71,
      "": 72,
      "": 73,
      "": 74,
      "¡": 75,
      "¢": 76,
      "£": 77,
      "¤": 78,
      "§": 79,
      "©": 80,
      "ª": 81,
      "¬": 82,
      "­": 83,
      "¯": 84,
      "°": 85,
      "±": 86,
      "³": 87,
      "´": 88,
      "¶": 89,
      "½": 90,
      "¿": 91,
      "à": 92,
      "á": 93,
      "â": 94,
      "ã": 95,
      "ä": 96,
      "å": 97,
      "æ": 98,
      "ç": 99,
      "è": 100,
      "é": 101,
      "ê": 102,
      "ë": 103,
      "ì": 104,
      "í": 105,
      "ï": 106,
      "ð": 107,
      "ñ": 108,
      "ò": 109,
      "ó": 110,
      "ô": 111,
      "õ": 112,
      "ö": 113,
      "ø": 114,
      "ú": 115,
      "ü": 116,
      "ý": 117,
      "þ": 118,
      "ă": 119,
      "ć": 120,
      "ē": 121,
      "ı": 122,
      "œ": 123,
      "ş": 124,
      "š": 125,
      "ż": 126,
      "ư": 127,
      "˜": 128,
      "̇": 129,
      "ί": 130,
      "β": 131,
      "η": 132,
      "ι": 133,
      "μ": 134,
      "ν": 135,
      "ο": 136,
      "ρ": 137,
      "τ": 138,
      "υ": 139,
      "с": 140,
      "у": 141,
      "‒": 142,
      "–": 143,
      "—": 144,
      "‚": 145,
      "‭": 146,
      "′": 147,
      "″": 148,
      "€": 149,
      "™": 150,
      "─": 151,
      "│": 152,
      "●": 153,
      "♪": 154,
      "♫": 155,
      "檛": 156,
      "鈥": 157,
      "ﬁ": 158,
      "ﬂ": 159,
      "##l": 160,
      "##a": 161,
      "##m": 162,
      "##t": 163,
      "##p": 164,
      "##e": 165,
      "##r": 166,
      "##b": 167,
      "##o": 168,
      "##d": 169,
      "##i": 170,
      "##n": 171,
      "##y": 172,
      "##u": 173,
      "##h": 174,
      "##s": 175,
      "##k": 176,
      "##g": 177,
      "##c": 178,
      "##z": 179,
      "##f": 180,
      "##v": 181,
      "##w": 182,
      "##x": 183,
      "##q": 184,
      "##j": 185,
      "##_": 186,
      "##*": 187,
      "##?": 188,
      "##ι": 189,
      "##.": 190,
      "##ï": 191,
      "##é": 192,
      "##`": 193,
      "##å": 194,
      "##ñ": 195,
      "##ó": 196,
      "##ο": 197,
      "##ş": 198,
      "##í": 199,
      "##\"": 200,
      "###": 201,
      "##:": 202,
      "##'": 203,
      "##ö": 204,
      "##у": 205,
      "##!": 206,
      "##¶": 207,
      "##-": 208,
      "##ú": 209,
      "##è": 210,
      "##ν": 211,
      "##/": 212,
      "##‚": 213,
      "##υ": 214,
      "##ý": 215,
      "##%": 216,
      "##ﬂ": 217,
      "##♪": 218,
      "##]": 219,
      "##,": 220,
      "##â": 221,
      "##ì": 222,
      "##=": 223,
      "##ã": 224,
      "##ı": 225,
      "##}": 226,
      "##ø": 227,
      "##)": 228,
      "##(": 229,
      "##ä": 230,
      "##ü": 231,
      "##á": 232,
      "##¯": 233,
      "##~": 234,
      "##$": 235,
      "##ί": 236,
      "##æ": 237,
      "##õ": 238,
      "##ò": 239,
      "##ë": 240,
      "##ð": 241,
      "##ư": 242,
      "##{": 243,
      "##ô": 244,
      "##\\": 245,
      "##[": 246,
      "##̇": 247,
      "##": 248,
      "##­": 249,
      "##ç": 250,
      "##ă": 251,
      "##þ": 252,
      "##œ": 253,
      "##ê": 254,
      "##¬": 255,
      "##;": 256,
      "##˜": 257,
      "##ρ": 258,
      "##^": 259,
      "##ć": 260,
      "##鈥": 261,
      "##檛": 262,
      "##š": 263,
      "th": 264,
      "##ou": 265,
      "##er": 266,
      "##in": 267,
      "you": 268,
      "the": 269,
      "##at": 270,
      "##ing": 271,
      "to": 272,
      "##an": 273,
      "##on": 274,
      "##or": 275,
      "##ll": 276,
      "##en": 277,
      "an": 278,
      "##ed": 279,
      "##es": 280,
      "wh": 281,
      "##is": 282,
      "##ow": 283,
      "##ea": 284,
      "it": 285,
      "##th": 286,
      "##om": 287,
      "##ay": 288,
      "##re": 289,
      "and": 290,
      "that": 291,
      "in": 292,
      "of": 293,
      "##ve": 294,
      "##as": 295,
      "be": 296,
      "we": 297,
      "##ot": 298,
      "##ut": 299,
      "##ar": 300,
      "##ere": 301,
      "##et": 302,
      "##gh": 303,
      "ha": 304,
      "##us": 305,
      "on": 306,
      "me": 307,
      "he": 308,
      "##it": 309,
      "is": 310,
      "##id": 311,
      "do": 312,
      "##ld": 313,
      "##le": 314,
      "re": 315,
      "sh": 316,
      "##ght": 317,
      "wi": 318,
      "what": 319,
      "##ic": 320,
      "##ke": 321,
      "for": 322,
      "..": 323,
      "go": 324,
      "...": 325,
      "this": 326,
      "##se": 327,
      "st": 328,
      "##ome": 329,
      "kn": 330,
      "##im": 331,
      "##ac": 332,
      "##ight": 333,
      "##ver": 334,
      "was": 335,
      "know": 336,
      "##al": 337,
      "my": 338,
      "your": 339,
      "don": 340,
      "li": 341,
      "have": 342,
      "##ust": 343,
      "not": 344,
      "##ur": 345,
      "with": 346,
      "all": 347,
      "##ir": 348,
      "##ould": 349,
      "no": 350,
      "can": 351,
      "so": 352,
      "##ly": 353,
      "##ent": 354,
      "##ee": 355,
      "##oo": 356,
      "are": 357,
      "##ant": 358,
      "##ch": 359,
      "##ion": 360,
      "ne": 361,
      "##am": 362,
      "but": 363,
      "##ry": 364,
      "just": 365,
      "##st": 366,
      "ok": 367,
      "some": 368,
      "get": 369,
      "they": 370,
      "ab": 371,
      "##ear": 372,
      "##ro": 373,
      "##out": 374,
      "there": 375,
      "##thing": 376,
      "##ter": 377,
      "fr": 378,
      "right": 379,
      "she": 380,
      "ch": 381,
      "as": 382,
      "here": 383,
      "out": 384,
      "##all": 385,
      "like": 386,
      "ll": 387,
      "##ec": 388,
      "##ad": 389,
      "##od": 390,
      "at": 391,
      "if": 392,
      "want": 393,
      "##ink": 394,
      "okay": 395,
      "##ake": 396,
      "did": 397,
      "##ce": 398,
      "##nd": 399,
      "about": 400,
      "up": 401,
      "##one": 402,
      "##pp": 403,
      "##ther": 404,
      "##ess": 405,
      "##ack": 406,
      "her": 407,
      "pl": 408,
      "him": 409,
      "##ill": 410,
      "##est": 411,
      "think": 412,
      "##and": 413,
      "rea": 414,
      "any": 415,
      "##op": 416,
      "##ook": 417,
      "wor": 418,
      "how": 419,
      "one": 420,
      "##un": 421,
      "got": 422,
      "now": 423,
      "tr": 424,
      "##ge": 425,
      "al": 426,
      "##ell": 427,
      "see": 428,
      "##ain": 429,
      "su": 430,
      "ve": 431,
      "##ck": 432,
      "##ore": 433,
      "##il": 434,
      "##ind": 435,
      "well": 436,
      "sor": 437,
      "##na": 438,
      "##ie": 439,
      "who": 440,
      "ever": 441,
      "look": 442,
      "us": 443,
      "sorry": 444,
      "will": 445,
      "his": 446,
      "##ive": 447,
      "lo": 448,
      "or": 449,
      "sa": 450,
      "tim": 451,
      "would": 452,
      "from": 453,
      "##ul": 454,
      "com": 455,
      "##ate": 456,
      "##ig": 457,
      "when": 458,
      "ex": 459,
      "##end": 460,
      "back": 461,
      "##ab": 462,
      "gu": 463,
      "man": 464,
      "say": 465,
      "why": 466,
      "pr": 467,
      "good": 468,
      "con": 469,
      "let": 470,
      "##ers": 471,
      "##ame": 472,
      "##art": 473,
      "##king": 474,
      "ar": 475,
      "could": 476,
      "##ead": 477,
      "need": 478,
      "going": 479,
      "come": 480,
      "mo": 481,
      "time": 482,
      "than": 483,
      "gon": 484,
      "sp": 485,
      "##ound": 486,
      "gonna": 487,
      "every": 488,
      "br": 489,
      "##ol": 490,
      "##ong": 491,
      "##os": 492,
      "them": 493,
      "##ct": 494,
      "##ist": 495,
      "##use": 496,
      "##ation": 497,
      "tell": 498,
      "##ven": 499,
      "thing": 500,
      "##um": 501,
      "had": 502,
      "were": 503,
      "cl": 504,
      "oh": 505,
      "been": 506,
      "ag": 507,
      "off": 508,
      "dr": 509,
      "yea": 510,
      "yeah": 511,
      "##ard": 512,
      "##ast": 513,
      "##ice": 514,
      "##ath": 515,
      "our": 516,
      "pro": 517,
      "take": 518,
      "##way": 519,
      "##lly": 520,
      "##ap": 521,
      "##ine": 522,
      "am": 523,
      "##if": 524,
      "##ause": 525,
      "de": 526,
      "##uck": 527,
      "too": 528,
      "##own": 529,
      "then": 530,
      "bo": 531,
      "##ect": 532,
      "tal": 533,
      "##our": 534,
      "something": 535,
      "by": 536,
      "##fe": 537,
      "##itt": 538,
      "bec": 539,
      "##ough": 540,
      "way": 541,
      "##lf": 542,
      "en": 543,
      "didn": 544,
      "where": 545,
      "really": 546,
      "has": 547,
      "##ace": 548,
      "un": 549,
      "##ick": 550,
      "mean": 551,
      "##em": 552,
      "may": 553,
      "##ri": 554,
      "happ": 555,
      "make": 556,
      "##ag": 557,
      "##ous": 558,
      "##ide": 559,
      "more": 560,
      "over": 561,
      "guy": 562,
      "pe": 563,
      "should": 564,
      "call": 565,
      "##ery": 566,
      "bl": 567,
      "##ally": 568,
      "doing": 569,
      "##ose": 570,
      "gr": 571,
      "down": 572,
      "af": 573,
      "does": 574,
      "because": 575,
      "se": 576,
      "##ble": 577,
      "##ving": 578,
      "##ople": 579,
      "never": 580,
      "people": 581,
      "hel": 582,
      "tw": 583,
      "work": 584,
      "int": 585,
      "only": 586,
      "##ought": 587,
      "ro": 588,
      "hear": 589,
      "cr": 590,
      "##ittle": 591,
      "day": 592,
      "little": 593,
      "help": 594,
      "##ort": 595,
      "thank": 596,
      "##are": 597,
      "lea": 598,
      "co": 599,
      "##ody": 600,
      "##ies": 601,
      "jo": 602,
      "very": 603,
      "##ber": 604,
      "##ish": 605,
      "##ity": 606,
      "kill": 607,
      "##ue": 608,
      "##ure": 609,
      "said": 610,
      "sc": 611,
      "##reat": 612,
      "year": 613,
      "##be": 614,
      "##ree": 615,
      "##ip": 616,
      "even": 617,
      "plea": 618,
      "love": 619,
      "##ud": 620,
      "find": 621,
      "happen": 622,
      "##act": 623,
      "other": 624,
      "bet": 625,
      "two": 626,
      "talk": 627,
      "fir": 628,
      "##iss": 629,
      "##eep": 630,
      "le": 631,
      "ma": 632,
      "mu": 633,
      "won": 634,
      "##ting": 635,
      "##self": 636,
      "give": 637,
      "again": 638,
      "##eel": 639,
      "mar": 640,
      "qu": 641,
      "pre": 642,
      "bel": 643,
      "yes": 644,
      "##ang": 645,
      "anything": 646,
      "##urn": 647,
      "##ew": 648,
      "much": 649,
      "##pl": 650,
      "these": 651,
      "please": 652,
      "wa": 653,
      "try": 654,
      "##ass": 655,
      "into": 656,
      "##age": 657,
      "new": 658,
      "life": 659,
      "##ff": 660,
      "##ite": 661,
      "##ty": 662,
      "##ather": 663,
      "car": 664,
      "im": 665,
      "##ment": 666,
      "##wn": 667,
      "first": 668,
      "feel": 669,
      "fuck": 670,
      "hey": 671,
      "##el": 672,
      "##ood": 673,
      "##ves": 674,
      "##fore": 675,
      "thought": 676,
      "after": 677,
      "##oney": 678,
      "##der": 679,
      "put": 680,
      "gir": 681,
      "before": 682,
      "##ich": 683,
      "fri": 684,
      "wr": 685,
      "##body": 686,
      "still": 687,
      "maybe": 688,
      "keep": 689,
      "##ance": 690,
      "long": 691,
      "their": 692,
      "night": 693,
      "friend": 694,
      "##nder": 695,
      "mr": 696,
      "##ade": 697,
      "##per": 698,
      "##ved": 699,
      "act": 700,
      "rem": 701,
      "thr": 702,
      "nothing": 703,
      "##ning": 704,
      "##day": 705,
      "##eal": 706,
      "wait": 707,
      "bu": 708,
      "po": 709,
      "##oun": 710,
      "under": 711,
      "sure": 712,
      "hand": 713,
      "everything": 714,
      "##pt": 715,
      "last": 716,
      "ta": 717,
      "belie": 718,
      "##atch": 719,
      "part": 720,
      "##ire": 721,
      "ho": 722,
      "ad": 723,
      "god": 724,
      "things": 725,
      "sw": 726,
      "ac": 727,
      "those": 728,
      "girl": 729,
      "##ool": 730,
      "str": 731,
      "sec": 732,
      "uh": 733,
      "fl": 734,
      "must": 735,
      "##ence": 736,
      "##eak": 737,
      "##ile": 738,
      "##iz": 739,
      "start": 740,
      "told": 741,
      "kid": 742,
      "bro": 743,
      "##ach": 744,
      "home": 745,
      "--": 746,
      "great": 747,
      "##ft": 748,
      "old": 749,
      "years": 750,
      "away": 751,
      "doesn": 752,
      "ask": 753,
      ".\"": 754,
      "##au": 755,
      "##ied": 756,
      "ph": 757,
      "em": 758,
      "real": 759,
      "sm": 760,
      "dis": 761,
      "guys": 762,
      "##ater": 763,
      "believe": 764,
      "kind": 765,
      "##ways": 766,
      "around": 767,
      "##dy": 768,
      "##ord": 769,
      "##ouse": 770,
      "el": 771,
      "##ans": 772,
      "mom": 773,
      "##ial": 774,
      "boy": 775,
      "##ond": 776,
      "big": 777,
      "lot": 778,
      "per": 779,
      "##ild": 780,
      "show": 781,
      "##ep": 782,
      "fa": 783,
      "name": 784,
      "res": 785,
      "always": 786,
      "stay": 787,
      "place": 788,
      "someone": 789,
      "leave": 790,
      "##ious": 791,
      "min": 792,
      "##ise": 793,
      "id": 794,
      "better": 795,
      "##able": 796,
      "ass": 797,
      "wom": 798,
      "miss": 799,
      "stop": 800,
      "##kes": 801,
      "##eam": 802,
      "cont": 803,
      "through": 804,
      "made": 805,
      "head": 806,
      "##ually": 807,
      "father": 808,
      "mon": 809,
      "isn": 810,
      "##qu": 811,
      "might": 812,
      "##ily": 813,
      "##ia": 814,
      "dad": 815,
      "own": 816,
      "##iv": 817,
      "money": 818,
      "##ory": 819,
      "run": 820,
      "house": 821,
      "##ions": 822,
      "wanted": 823,
      "##ave": 824,
      "play": 825,
      "##ict": 826,
      "which": 827,
      "being": 828,
      "##son": 829,
      "##other": 830,
      "hell": 831,
      "##int": 832,
      "care": 833,
      "bad": 834,
      "fam": 835,
      "turn": 836,
      "##aw": 837,
      "##ember": 838,
      "##xt": 839,
      "##ated": 840,
      "##ount": 841,
      "ser": 842,
      "three": 843,
      "inter": 844,
      "done": 845,
      "stu": 846,
      "app": 847,
      "world": 848,
      "coming": 849,
      "talking": 850,
      "##orm": 851,
      "fo": 852,
      "##iff": 853,
      "comp": 854,
      "mother": 855,
      "found": 856,
      "remember": 857,
      "list": 858,
      "##ary": 859,
      "looking": 860,
      "another": 861,
      "bit": 862,
      "##ful": 863,
      "imp": 864,
      "rec": 865,
      "left": 866,
      "par": 867,
      "##ra": 868,
      "alr": 869,
      "nice": 870,
      "supp": 871,
      "else": 872,
      "##az": 873,
      "##ever": 874,
      "##og": 875,
      "bab": 876,
      "came": 877,
      "##ign": 878,
      "##ek": 879,
      "trying": 880,
      "bus": 881,
      "meet": 882,
      "att": 883,
      "hu": 884,
      "##ase": 885,
      "pret": 886,
      "shit": 887,
      "cour": 888,
      "##oss": 889,
      "##igh": 890,
      "happened": 891,
      "plan": 892,
      "ins": 893,
      "enough": 894,
      "war": 895,
      "sl": 896,
      "sch": 897,
      "##ull": 898,
      "##ult": 899,
      "##pect": 900,
      "same": 901,
      "##ents": 902,
      "job": 903,
      "##ian": 904,
      "##ny": 905,
      "sur": 906,
      "wasn": 907,
      "##ince": 908,
      "next": 909,
      "fun": 910,
      "##ner": 911,
      "week": 912,
      "op": 913,
      "##ix": 914,
      "##ange": 915,
      "today": 916,
      "minut": 917,
      "son": 918,
      "saw": 919,
      "acc": 920,
      "##ub": 921,
      "##erson": 922,
      "ear": 923,
      "##ms": 924,
      "getting": 925,
      "end": 926,
      "##orr": 927,
      "went": 928,
      "hard": 929,
      "room": 930,
      "comm": 931,
      "##aught": 932,
      "dead": 933,
      "##sh": 934,
      "tom": 935,
      "sho": 936,
      "actually": 937,
      "rel": 938,
      "dec": 939,
      "mor": 940,
      "fin": 941,
      "fine": 942,
      "##ey": 943,
      "##ope": 944,
      "wrong": 945,
      "bea": 946,
      "##atter": 947,
      "use": 948,
      "most": 949,
      "brother": 950,
      "family": 951,
      "##anna": 952,
      "ey": 953,
      "underst": 954,
      "inv": 955,
      "without": 956,
      "watch": 957,
      "baby": 958,
      "wouldn": 959,
      "listen": 960,
      "mind": 961,
      "forg": 962,
      "child": 963,
      "woman": 964,
      "person": 965,
      "##man": 966,
      "guess": 967,
      "hold": 968,
      "best": 969,
      "##ating": 970,
      "##gether": 971,
      "##ors": 972,
      "whole": 973,
      "##ible": 974,
      "yourself": 975,
      "idea": 976,
      "char": 977,
      "together": 978,
      "pretty": 979,
      "bring": 980,
      "wal": 981,
      "##ical": 982,
      "fucking": 983,
      "hur": 984,
      "##tain": 985,
      "##les": 986,
      "##ank": 987,
      "used": 988,
      "##ress": 989,
      "many": 990,
      "thanks": 991,
      "diff": 992,
      "sir": 993,
      "gl": 994,
      "hour": 995,
      "##ib": 996,
      "live": 997,
      "des": 998,
      "few": 999,
      "open": 1000,
      "##ons": 1001,
      "knew": 1002,
      "ago": 1003,
      "ton": 1004,
      "##ple": 1005,
      "rep": 1006,
      "##ta": 1007,
      "understand": 1008,
      "wife": 1009,
      "heard": 1010,
      "##here": 1011,
      "##ash": 1012,
      "move": 1013,
      "while": 1014,
      "##eady": 1015,
      "saying": 1016,
      "wanna": 1017,
      "took": 1018,
      "ev": 1019,
      "##gg": 1020,
      "since": 1021,
      "once": 1022,
      "far": 1023,
      "killed": 1024,
      "sle": 1025,
      "school": 1026,
      "##osed": 1027,
      "##uth": 1028,
      "seen": 1029,
      "##less": 1030,
      "gi": 1031,
      "##ens": 1032,
      "##eck": 1033,
      "##pped": 1034,
      "men": 1035,
      "already": 1036,
      "##ying": 1037,
      "pol": 1038,
      "ter": 1039,
      "##ss": 1040,
      "cause": 1041,
      "set": 1042,
      "##iver": 1043,
      "##orrow": 1044,
      "##ock": 1045,
      "##ail": 1046,
      "second": 1047,
      "proble": 1048,
      "called": 1049,
      "unt": 1050,
      "deal": 1051,
      "rest": 1052,
      "pres": 1053,
      "alone": 1054,
      "##anc": 1055,
      "stand": 1056,
      "##iness": 1057,
      "cap": 1058,
      "face": 1059,
      "word": 1060,
      "couldn": 1061,
      "blood": 1062,
      "haven": 1063,
      "high": 1064,
      "such": 1065,
      "anyone": 1066,
      "pay": 1067,
      "##ret": 1068,
      "days": 1069,
      "aw": 1070,
      "##air": 1071,
      "having": 1072,
      "##ident": 1073,
      "friends": 1074,
      "fight": 1075,
      "ready": 1076,
      "morning": 1077,
      "##ings": 1078,
      "check": 1079,
      "##ph": 1080,
      "soon": 1081,
      "cut": 1082,
      "##we": 1083,
      "##ower": 1084,
      "beaut": 1085,
      "##ably": 1086,
      "everyone": 1087,
      "##ken": 1088,
      "both": 1089,
      "course": 1090,
      "case": 1091,
      "##ister": 1092,
      "myself": 1093,
      "until": 1094,
      "##so": 1095,
      "##orn": 1096,
      "lad": 1097,
      "##ense": 1098,
      "sound": 1099,
      "eas": 1100,
      "bar": 1101,
      "prob": 1102,
      "##ried": 1103,
      "drink": 1104,
      "##where": 1105,
      "##amp": 1106,
      "##ize": 1107,
      "yet": 1108,
      "quest": 1109,
      "##ness": 1110,
      "conf": 1111,
      "sleep": 1112,
      "count": 1113,
      "hope": 1114,
      "says": 1115,
      "matter": 1116,
      "looks": 1117,
      "tomorrow": 1118,
      "happy": 1119,
      "sk": 1120,
      "##rew": 1121,
      "##mm": 1122,
      "sit": 1123,
      "wants": 1124,
      "heart": 1125,
      "tonight": 1126,
      "each": 1127,
      "thinking": 1128,
      "stuff": 1129,
      "met": 1130,
      "##ition": 1131,
      "##ger": 1132,
      "differ": 1133,
      "exact": 1134,
      "##aughter": 1135,
      "dam": 1136,
      "##av": 1137,
      "gone": 1138,
      "inf": 1139,
      "later": 1140,
      "te": 1141,
      "##ush": 1142,
      "expl": 1143,
      "clear": 1144,
      "death": 1145,
      "##eet": 1146,
      "probably": 1147,
      "##ost": 1148,
      "sign": 1149,
      "kids": 1150,
      "mur": 1151,
      "also": 1152,
      "business": 1153,
      "honey": 1154,
      "cons": 1155,
      "ah": 1156,
      "hum": 1157,
      "##ark": 1158,
      "##ird": 1159,
      "working": 1160,
      "door": 1161,
      "point": 1162,
      "hit": 1163,
      "##ier": 1164,
      "true": 1165,
      "hon": 1166,
      "ret": 1167,
      "##ling": 1168,
      "ap": 1169,
      "compl": 1170,
      "pass": 1171,
      "month": 1172,
      "um": 1173,
      "exc": 1174,
      "break": 1175,
      "hot": 1176,
      "##ding": 1177,
      "gotta": 1178,
      "trust": 1179,
      "five": 1180,
      "wonder": 1181,
      "beh": 1182,
      "law": 1183,
      "cou": 1184,
      "ob": 1185,
      "##ime": 1186,
      "eat": 1187,
      "##ations": 1188,
      "hurt": 1189,
      "##iful": 1190,
      "##ont": 1191,
      "sy": 1192,
      "mess": 1193,
      "poss": 1194,
      "spec": 1195,
      "taking": 1196,
      "walk": 1197,
      "late": 1198,
      "##my": 1199,
      "num": 1200,
      "##ott": 1201,
      "##ctor": 1202,
      "pick": 1203,
      "somebody": 1204,
      "##unch": 1205,
      "problem": 1206,
      "light": 1207,
      "inc": 1208,
      "##ned": 1209,
      "beautiful": 1210,
      "supposed": 1211,
      "##ates": 1212,
      "exactly": 1213,
      "huh": 1214,
      "minutes": 1215,
      "luck": 1216,
      "knows": 1217,
      "eyes": 1218,
      "##ump": 1219,
      "##ward": 1220,
      "##cept": 1221,
      "win": 1222,
      "phone": 1223,
      "##ah": 1224,
      "daughter": 1225,
      "##red": 1226,
      "hands": 1227,
      "body": 1228,
      "means": 1229,
      "fig": 1230,
      "har": 1231,
      "##enc": 1232,
      "def": 1233,
      "side": 1234,
      "gave": 1235,
      "som": 1236,
      "##ient": 1237,
      "book": 1238,
      "##ual": 1239,
      "die": 1240,
      "##uc": 1241,
      "reason": 1242,
      "##llow": 1243,
      "shot": 1244,
      "##itch": 1245,
      "inside": 1246,
      "truth": 1247,
      "lost": 1248,
      "ind": 1249,
      "##ets": 1250,
      "gen": 1251,
      "aren": 1252,
      "##med": 1253,
      "##oc": 1254,
      "det": 1255,
      "##ison": 1256,
      "pain": 1257,
      "##ug": 1258,
      "makes": 1259,
      "fire": 1260,
      "pa": 1261,
      "tea": 1262,
      "##by": 1263,
      "perf": 1264,
      "import": 1265,
      "chance": 1266,
      "prot": 1267,
      "close": 1268,
      "grand": 1269,
      "four": 1270,
      "##oy": 1271,
      "change": 1272,
      "bed": 1273,
      "youn": 1274,
      "half": 1275,
      "ain": 1276,
      "power": 1277,
      "send": 1278,
      "sing": 1279,
      "##oice": 1280,
      "murder": 1281,
      "mil": 1282,
      "least": 1283,
      "different": 1284,
      "coll": 1285,
      "interest": 1286,
      "pull": 1287,
      "whatever": 1288,
      "making": 1289,
      "din": 1290,
      "fact": 1291,
      "shoot": 1292,
      "free": 1293,
      "##ither": 1294,
      "##sw": 1295,
      "##up": 1296,
      "hus": 1297,
      "##band": 1298,
      "star": 1299,
      "prom": 1300,
      "##uct": 1301,
      "hours": 1302,
      "sex": 1303,
      "water": 1304,
      "##more": 1305,
      "cor": 1306,
      "against": 1307,
      "##cess": 1308,
      "beg": 1309,
      "husband": 1310,
      "ed": 1311,
      "sou": 1312,
      "##imes": 1313,
      "lear": 1314,
      "##co": 1315,
      "##ren": 1316,
      "wish": 1317,
      "town": 1318,
      "##ared": 1319,
      "worry": 1320,
      "times": 1321,
      "##ouble": 1322,
      "waiting": 1323,
      "follow": 1324,
      "##led": 1325,
      "inst": 1326,
      "air": 1327,
      "hun": 1328,
      "##ween": 1329,
      "cle": 1330,
      "between": 1331,
      "couple": 1332,
      "sim": 1333,
      "important": 1334,
      "mad": 1335,
      "its": 1336,
      "##gr": 1337,
      "answ": 1338,
      "party": 1339,
      "chr": 1340,
      "##pr": 1341,
      "six": 1342,
      "##ross": 1343,
      "police": 1344,
      "red": 1345,
      "read": 1346,
      "del": 1347,
      "col": 1348,
      "sent": 1349,
      "gun": 1350,
      "##att": 1351,
      "speak": 1352,
      "dep": 1353,
      "somet": 1354,
      "asked": 1355,
      "##ork": 1356,
      "##ins": 1357,
      "young": 1358,
      "order": 1359,
      "dog": 1360,
      "dream": 1361,
      "sister": 1362,
      "story": 1363,
      "anymore": 1364,
      "reg": 1365,
      "telling": 1366,
      "shut": 1367,
      "gets": 1368,
      "everybody": 1369,
      "##ete": 1370,
      "anyway": 1371,
      "black": 1372,
      "##ane": 1373,
      "dro": 1374,
      "##ised": 1375,
      "##olog": 1376,
      "cop": 1377,
      "number": 1378,
      "##hn": 1379,
      "though": 1380,
      "comes": 1381,
      "craz": 1382,
      "mill": 1383,
      "city": 1384,
      "sn": 1385,
      "team": 1386,
      "##side": 1387,
      "##ouch": 1388,
      "stud": 1389,
      "##ude": 1390,
      "news": 1391,
      "easy": 1392,
      "med": 1393,
      "pat": 1394,
      "front": 1395,
      "jack": 1396,
      "alive": 1397,
      "arr": 1398,
      "##riend": 1399,
      "##uss": 1400,
      "sto": 1401,
      "lead": 1402,
      "##vel": 1403,
      "pap": 1404,
      "alm": 1405,
      "##eas": 1406,
      "eng": 1407,
      "leg": 1408,
      "doctor": 1409,
      "##ention": 1410,
      "tried": 1411,
      "buy": 1412,
      "##sel": 1413,
      "nobody": 1414,
      "game": 1415,
      "started": 1416,
      "##pid": 1417,
      "test": 1418,
      "vis": 1419,
      "##its": 1420,
      "girls": 1421,
      "secret": 1422,
      "able": 1423,
      "mag": 1424,
      "##ak": 1425,
      "##app": 1426,
      "##ject": 1427,
      "john": 1428,
      "es": 1429,
      "##ited": 1430,
      "##ts": 1431,
      "##anger": 1432,
      "died": 1433,
      "fall": 1434,
      "save": 1435,
      "stupid": 1436,
      "##eric": 1437,
      "shall": 1438,
      "crazy": 1439,
      "needs": 1440,
      "line": 1441,
      "cer": 1442,
      "trans": 1443,
      "##land": 1444,
      "##ital": 1445,
      "goes": 1446,
      "##br": 1447,
      "##ks": 1448,
      "##raid": 1449,
      "protect": 1450,
      "afraid": 1451,
      "mine": 1452,
      "##aster": 1453,
      "chang": 1454,
      "##io": 1455,
      "minute": 1456,
      "##ures": 1457,
      "##rol": 1458,
      "ent": 1459,
      "sometimes": 1460,
      "office": 1461,
      "women": 1462,
      "answer": 1463,
      "##iet": 1464,
      "ra": 1465,
      "expect": 1466,
      "##ief": 1467,
      "behind": 1468,
      "##cer": 1469,
      "full": 1470,
      "moment": 1471,
      "##any": 1472,
      "children": 1473,
      "mus": 1474,
      "americ": 1475,
      "forget": 1476,
      "dinner": 1477,
      "almost": 1478,
      "months": 1479,
      "cur": 1480,
      "##vie": 1481,
      "add": 1482,
      "wind": 1483,
      "seems": 1484,
      "sweet": 1485,
      "##iously": 1486,
      "ext": 1487,
      "build": 1488,
      "##ific": 1489,
      "cal": 1490,
      "##eed": 1491,
      "mem": 1492,
      "brought": 1493,
      "question": 1494,
      "##ship": 1495,
      "bur": 1496,
      "dest": 1497,
      "wear": 1498,
      "hang": 1499,
      "##ired": 1500,
      "touch": 1501,
      "christ": 1502,
      "che": 1503,
      "return": 1504,
      "##ike": 1505,
      "step": 1506,
      "less": 1507,
      "special": 1508,
      "##ene": 1509,
      "country": 1510,
      "ref": 1511,
      "##te": 1512,
      "lives": 1513,
      "##als": 1514,
      "lie": 1515,
      "ke": 1516,
      "vict": 1517,
      "##ured": 1518,
      "class": 1519,
      "running": 1520,
      "lady": 1521,
      "dist": 1522,
      "prof": 1523,
      "offic": 1524,
      "ele": 1525,
      "either": 1526,
      "safe": 1527,
      "food": 1528,
      "##idd": 1529,
      "perfect": 1530,
      "pict": 1531,
      "bull": 1532,
      "##ape": 1533,
      "finish": 1534,
      "living": 1535,
      "clean": 1536,
      "ball": 1537,
      "quite": 1538,
      "record": 1539,
      "pi": 1540,
      "gre": 1541,
      "outside": 1542,
      "attack": 1543,
      "sub": 1544,
      "cool": 1545,
      "adv": 1546,
      "##aps": 1547,
      "explain": 1548,
      "mist": 1549,
      "cann": 1550,
      "damn": 1551,
      "bill": 1552,
      "burn": 1553,
      "##ience": 1554,
      "trouble": 1555,
      "taken": 1556,
      "bas": 1557,
      "married": 1558,
      "fil": 1559,
      "sam": 1560,
      "##ider": 1561,
      "land": 1562,
      "##ps": 1563,
      "##inc": 1564,
      "past": 1565,
      "worth": 1566,
      "exp": 1567,
      "imag": 1568,
      "stre": 1569,
      "##ames": 1570,
      "teach": 1571,
      "certain": 1572,
      "##oke": 1573,
      "##ator": 1574,
      "fell": 1575,
      "##ton": 1576,
      "sus": 1577,
      "human": 1578,
      "wed": 1579,
      "along": 1580,
      "lock": 1581,
      "strong": 1582,
      "##ters": 1583,
      "train": 1584,
      "##ield": 1585,
      "hair": 1586,
      "fav": 1587,
      "king": 1588,
      "boys": 1589,
      "er": 1590,
      "##cle": 1591,
      "mrs": 1592,
      "bitch": 1593,
      "##ows": 1594,
      "leaving": 1595,
      "control": 1596,
      "captain": 1597,
      "##ith": 1598,
      "##iate": 1599,
      "art": 1600,
      "cover": 1601,
      "lau": 1602,
      "##oud": 1603,
      "catch": 1604,
      "##pping": 1605,
      "##..": 1606,
      "shouldn": 1607,
      "##idence": 1608,
      "feeling": 1609,
      "card": 1610,
      "##ute": 1611,
      "##ics": 1612,
      "report": 1613,
      "inform": 1614,
      "##yp": 1615,
      "anybody": 1616,
      "ten": 1617,
      "happens": 1618,
      "ru": 1619,
      "sell": 1620,
      "wall": 1621,
      "##eral": 1622,
      "##earch": 1623,
      "##ract": 1624,
      "lose": 1625,
      "jud": 1626,
      "rid": 1627,
      "earth": 1628,
      "la": 1629,
      "nor": 1630,
      "##lic": 1631,
      "##come": 1632,
      "##osp": 1633,
      "company": 1634,
      "excuse": 1635,
      "##ats": 1636,
      "yours": 1637,
      "hate": 1638,
      "##ically": 1639,
      "weeks": 1640,
      "white": 1641,
      "##ster": 1642,
      "##gry": 1643,
      "ship": 1644,
      "exper": 1645,
      "rob": 1646,
      "sounds": 1647,
      "##selves": 1648,
      "cannot": 1649,
      "##oth": 1650,
      "meeting": 1651,
      "danger": 1652,
      "key": 1653,
      "##ler": 1654,
      "top": 1655,
      "##ility": 1656,
      "alright": 1657,
      "##artment": 1658,
      "daddy": 1659,
      "funny": 1660,
      "ca": 1661,
      "cam": 1662,
      "##dd": 1663,
      "##fort": 1664,
      "##ines": 1665,
      "piec": 1666,
      "##pons": 1667,
      "##ne": 1668,
      "##ley": 1669,
      "himself": 1670,
      "mark": 1671,
      "president": 1672,
      "##erg": 1673,
      "##ote": 1674,
      "##ized": 1675,
      "small": 1676,
      "figure": 1677,
      "cent": 1678,
      "aff": 1679,
      "dan": 1680,
      "super": 1681,
      "sense": 1682,
      "asking": 1683,
      "complete": 1684,
      "cry": 1685,
      "scr": 1686,
      "adm": 1687,
      "fel": 1688,
      "wel": 1689,
      "##vers": 1690,
      "##itting": 1691,
      "parents": 1692,
      "##eaking": 1693,
      "##unk": 1694,
      "possible": 1695,
      "kiss": 1696,
      "pos": 1697,
      "near": 1698,
      "sick": 1699,
      "state": 1700,
      "cold": 1701,
      "disc": 1702,
      "sort": 1703,
      "surpr": 1704,
      "bir": 1705,
      "gent": 1706,
      "hor": 1707,
      "playing": 1708,
      "##ys": 1709,
      "##room": 1710,
      "seem": 1711,
      "##ift": 1712,
      "drive": 1713,
      "fair": 1714,
      "dark": 1715,
      "nat": 1716,
      "##ular": 1717,
      "##ined": 1718,
      "become": 1719,
      "pur": 1720,
      "choice": 1721,
      "offer": 1722,
      "##ina": 1723,
      "##ants": 1724,
      "dem": 1725,
      "fly": 1726,
      "hi": 1727,
      "##uring": 1728,
      "sun": 1729,
      "tot": 1730,
      "looked": 1731,
      "foot": 1732,
      "fast": 1733,
      "##ma": 1734,
      "press": 1735,
      "hmm": 1736,
      "##rible": 1737,
      "terr": 1738,
      "hosp": 1739,
      "##ides": 1740,
      "clos": 1741,
      "pub": 1742,
      "##ale": 1743,
      "##ction": 1744,
      "##ists": 1745,
      "pet": 1746,
      "treat": 1747,
      "invest": 1748,
      "bye": 1749,
      "laugh": 1750,
      "fix": 1751,
      "welcome": 1752,
      "birth": 1753,
      "hospital": 1754,
      "creat": 1755,
      "##sy": 1756,
      "quick": 1757,
      "bud": 1758,
      "##used": 1759,
      "somewhere": 1760,
      "learn": 1761,
      "lord": 1762,
      "##men": 1763,
      "honest": 1764,
      "brain": 1765,
      "dire": 1766,
      "squ": 1767,
      "##urity": 1768,
      "sol": 1769,
      "sold": 1770,
      "##stem": 1771,
      "##roy": 1772,
      "loc": 1773,
      "conn": 1774,
      "needed": 1775,
      "mou": 1776,
      "##ior": 1777,
      "##ided": 1778,
      "eye": 1779,
      "coun": 1780,
      "sal": 1781,
      "moving": 1782,
      "spend": 1783,
      "box": 1784,
      "##ced": 1785,
      "##ently": 1786,
      "priv": 1787,
      "##omb": 1788,
      "##vern": 1789,
      "road": 1790,
      "system": 1791,
      "norm": 1792,
      "##gan": 1793,
      "track": 1794,
      "security": 1795,
      "sat": 1796,
      "##no": 1797,
      "glad": 1798,
      "date": 1799,
      "mm": 1800,
      "val": 1801,
      "others": 1802,
      "stra": 1803,
      "flo": 1804,
      "pen": 1805,
      "##iting": 1806,
      "dear": 1807,
      "wer": 1808,
      "##ully": 1809,
      "form": 1810,
      "fault": 1811,
      "gentle": 1812,
      "hea": 1813,
      "known": 1814,
      "except": 1815,
      "write": 1816,
      "phot": 1817,
      "street": 1818,
      "?\"": 1819,
      "##gn": 1820,
      "stick": 1821,
      "worked": 1822,
      "throw": 1823,
      "disapp": 1824,
      "lucky": 1825,
      "million": 1826,
      "wedding": 1827,
      "##airs": 1828,
      "mer": 1829,
      "ris": 1830,
      "tra": 1831,
      "##ten": 1832,
      "mouth": 1833,
      "##ones": 1834,
      "##ities": 1835,
      "frank": 1836,
      "happening": 1837,
      "court": 1838,
      "##esh": 1839,
      "dress": 1840,
      "drug": 1841,
      "weren": 1842,
      "ran": 1843,
      "##ues": 1844,
      "##ked": 1845,
      "meant": 1846,
      "serv": 1847,
      "giving": 1848,
      "music": 1849,
      "bre": 1850,
      "rich": 1851,
      "prison": 1852,
      "##aph": 1853,
      "changed": 1854,
      "vi": 1855,
      "conv": 1856,
      "pleas": 1857,
      "longer": 1858,
      "entire": 1859,
      "bag": 1860,
      "##ted": 1861,
      "finally": 1862,
      "consider": 1863,
      "fool": 1864,
      "##ution": 1865,
      "works": 1866,
      "rather": 1867,
      "govern": 1868,
      "cond": 1869,
      "##umb": 1870,
      "pea": 1871,
      "##ision": 1872,
      "seeing": 1873,
      "weird": 1874,
      "ones": 1875,
      "straight": 1876,
      "wea": 1877,
      "##ron": 1878,
      "##ric": 1879,
      "dev": 1880,
      "unless": 1881,
      "rad": 1882,
      "##lo": 1883,
      "calling": 1884,
      "caught": 1885,
      "##ially": 1886,
      "##fer": 1887,
      "favor": 1888,
      "oper": 1889,
      "turned": 1890,
      "questions": 1891,
      "dou": 1892,
      "##amed": 1893,
      "victim": 1894,
      "fish": 1895,
      "allow": 1896,
      "felt": 1897,
      "##bed": 1898,
      "##aces": 1899,
      "amaz": 1900,
      "##ency": 1901,
      "rock": 1902,
      "promise": 1903,
      "ge": 1904,
      "abs": 1905,
      "begin": 1906,
      "camp": 1907,
      "##ged": 1908,
      "##eeth": 1909,
      "##cc": 1910,
      "thinks": 1911,
      "##iddle": 1912,
      "\"?": 1913,
      "agent": 1914,
      "information": 1915,
      "till": 1916,
      "surv": 1917,
      "cir": 1918,
      "song": 1919,
      "prep": 1920,
      "respect": 1921,
      "perh": 1922,
      "perhaps": 1923,
      "given": 1924,
      "words": 1925,
      "ahead": 1926,
      "##iving": 1927,
      "##uation": 1928,
      "short": 1929,
      "##oose": 1930,
      "command": 1931,
      "fut": 1932,
      "ste": 1933,
      "##ode": 1934,
      "loved": 1935,
      "enj": 1936,
      "missing": 1937,
      "destroy": 1938,
      "picture": 1939,
      "ring": 1940,
      "sea": 1941,
      "maj": 1942,
      "relation": 1943,
      "##ert": 1944,
      "ann": 1945,
      "cloth": 1946,
      "yester": 1947,
      ",\"": 1948,
      "dar": 1949,
      "middle": 1950,
      "pack": 1951,
      "##ession": 1952,
      "spr": 1953,
      "##ection": 1954,
      "##bers": 1955,
      "concer": 1956,
      "scared": 1957,
      "yesterday": 1958,
      "gar": 1959,
      "##ax": 1960,
      "handle": 1961,
      "contin": 1962,
      "camer": 1963,
      "piece": 1964,
      "bor": 1965,
      "deep": 1966,
      "reach": 1967,
      "takes": 1968,
      "building": 1969,
      "hop": 1970,
      "ill": 1971,
      "ride": 1972,
      "##ians": 1973,
      "gold": 1974,
      "watching": 1975,
      "esc": 1976,
      "none": 1977,
      "worried": 1978,
      "busy": 1979,
      "guard": 1980,
      "jes": 1981,
      "##ove": 1982,
      "##ony": 1983,
      "bath": 1984,
      "div": 1985,
      "kick": 1986,
      "lying": 1987,
      "##oof": 1988,
      "poor": 1989,
      "smell": 1990,
      "paper": 1991,
      "##iot": 1992,
      "cook": 1993,
      "##lie": 1994,
      "##ives": 1995,
      "##lfriend": 1996,
      "##ments": 1997,
      "girlfriend": 1998,
      "york": 1999,
      "##lish": 2000,
      "##ench": 2001,
      "beat": 2002,
      "##ears": 2003,
      "hist": 2004,
      "future": 2005,
      "relationship": 2006,
      "cross": 2007,
      "eff": 2008,
      "push": 2009,
      "##ho": 2010,
      "tech": 2011,
      "arrest": 2012,
      "##uce": 2013,
      "##ars": 2014,
      "requ": 2015,
      "blow": 2016,
      "serious": 2017,
      "appro": 2018,
      "investig": 2019,
      "cell": 2020,
      "master": 2021,
      "accident": 2022,
      "bott": 2023,
      "##bo": 2024,
      "##ik": 2025,
      "trip": 2026,
      "suck": 2027,
      "slow": 2028,
      "using": 2029,
      "proper": 2030,
      "talked": 2031,
      "amazing": 2032,
      "clothes": 2033,
      "##reed": 2034,
      "##irt": 2035,
      "sil": 2036,
      "##ages": 2037,
      "ground": 2038,
      "boss": 2039,
      "bank": 2040,
      "pop": 2041,
      "##lex": 2042,
      "arm": 2043,
      "evidence": 2044,
      "peace": 2045,
      "##ories": 2046,
      "cla": 2047,
      "killing": 2048,
      "park": 2049,
      "kept": 2050,
      "breath": 2051,
      "di": 2052,
      "jump": 2053,
      "##port": 2054,
      "##ative": 2055,
      "##ease": 2056,
      "los": 2057,
      "broke": 2058,
      "stri": 2059,
      "commun": 2060,
      "dangerous": 2061,
      "public": 2062,
      "bomb": 2063,
      "ice": 2064,
      "search": 2065,
      "anywhere": 2066,
      "stopped": 2067,
      "opp": 2068,
      "##ately": 2069,
      "crime": 2070,
      "ladies": 2071,
      "message": 2072,
      "je": 2073,
      "##friend": 2074,
      "wash": 2075,
      "##ury": 2076,
      "##ains": 2077,
      "contact": 2078,
      "comput": 2079,
      "sad": 2080,
      "##ls": 2081,
      "##ney": 2082,
      "honor": 2083,
      "av": 2084,
      "ger": 2085,
      "lar": 2086,
      "##inal": 2087,
      "##key": 2088,
      "tem": 2089,
      "##ball": 2090,
      "anim": 2091,
      "ups": 2092,
      "cost": 2093,
      "early": 2094,
      "during": 2095,
      "##me": 2096,
      "##gue": 2097,
      "##itness": 2098,
      "sugg": 2099,
      "##aged": 2100,
      "across": 2101,
      "drop": 2102,
      "wow": 2103,
      "##la": 2104,
      "##icking": 2105,
      "grow": 2106,
      "fail": 2107,
      "dude": 2108,
      "lunch": 2109,
      "match": 2110,
      "steal": 2111,
      "enter": 2112,
      "seven": 2113,
      "hello": 2114,
      "mistake": 2115,
      "suggest": 2116,
      "heal": 2117,
      "mot": 2118,
      "##bar": 2119,
      "##viously": 2120,
      "coff": 2121,
      "personal": 2122,
      "floor": 2123,
      "worse": 2124,
      "##ung": 2125,
      "##ational": 2126,
      "instead": 2127,
      "feet": 2128,
      "pot": 2129,
      "##eng": 2130,
      "self": 2131,
      "fing": 2132,
      "##erv": 2133,
      "doll": 2134,
      "##ism": 2135,
      "decided": 2136,
      "paid": 2137,
      "pract": 2138,
      "carry": 2139,
      "##unt": 2140,
      "smart": 2141,
      "boyfriend": 2142,
      "single": 2143,
      "born": 2144,
      "##ming": 2145,
      "##oint": 2146,
      "club": 2147,
      "invol": 2148,
      "present": 2149,
      "detect": 2150,
      "imagine": 2151,
      "mis": 2152,
      "round": 2153,
      "typ": 2154,
      "##get": 2155,
      "soc": 2156,
      "strange": 2157,
      "suppose": 2158,
      "cas": 2159,
      "##res": 2160,
      "threat": 2161,
      "hall": 2162,
      "##iding": 2163,
      "chief": 2164,
      "bought": 2165,
      "dance": 2166,
      "voice": 2167,
      "bother": 2168,
      "grab": 2169,
      "visit": 2170,
      "##ified": 2171,
      "emp": 2172,
      "join": 2173,
      "respons": 2174,
      "birthday": 2175,
      "bes": 2176,
      "##bt": 2177,
      "##fully": 2178,
      "##ume": 2179,
      "totally": 2180,
      "age": 2181,
      "fear": 2182,
      "mach": 2183,
      "whe": 2184,
      "station": 2185,
      "prod": 2186,
      "fat": 2187,
      "field": 2188,
      "##rec": 2189,
      "force": 2190,
      "knock": 2191,
      "killer": 2192,
      "completely": 2193,
      "low": 2194,
      "lab": 2195,
      "mir": 2196,
      "witness": 2197,
      "##to": 2198,
      "##orge": 2199,
      "##esome": 2200,
      "trave": 2201,
      "marry": 2202,
      "terrible": 2203,
      "##ances": 2204,
      "wearing": 2205,
      "fill": 2206,
      "sar": 2207,
      "tough": 2208,
      "##ders": 2209,
      "thous": 2210,
      "##enty": 2211,
      "chick": 2212,
      "movie": 2213,
      "enjoy": 2214,
      "main": 2215,
      "rom": 2216,
      "##cus": 2217,
      "##ze": 2218,
      "ange": 2219,
      "hero": 2220,
      "screw": 2221,
      "accept": 2222,
      "diffic": 2223,
      "##cover": 2224,
      "window": 2225,
      "##sych": 2226,
      "normal": 2227,
      "thousand": 2228,
      "bear": 2229,
      "mich": 2230,
      "##ilt": 2231,
      "moved": 2232,
      "roll": 2233,
      "##ogn": 2234,
      "south": 2235,
      "jesus": 2236,
      "cat": 2237,
      "den": 2238,
      "psych": 2239,
      "rece": 2240,
      "forward": 2241,
      "saved": 2242,
      "drag": 2243,
      "hasn": 2244,
      "gift": 2245,
      "mod": 2246,
      "table": 2247,
      "enem": 2248,
      "suff": 2249,
      "space": 2250,
      "starting": 2251,
      "hund": 2252,
      "situation": 2253,
      "mart": 2254,
      "##bs": 2255,
      "share": 2256,
      "grou": 2257,
      "post": 2258,
      "mention": 2259,
      "tick": 2260,
      "tor": 2261,
      "iss": 2262,
      "##idge": 2263,
      "##str": 2264,
      "##rod": 2265,
      "##ules": 2266,
      "realize": 2267,
      "##ogr": 2268,
      "officer": 2269,
      "history": 2270,
      "hundred": 2271,
      "pal": 2272,
      "ant": 2273,
      "awesome": 2274,
      "lawy": 2275,
      "interesting": 2276,
      "fac": 2277,
      "##ught": 2278,
      "##acy": 2279,
      "suc": 2280,
      "recogn": 2281,
      "viol": 2282,
      "jim": 2283,
      "tv": 2284,
      "##itive": 2285,
      "whoa": 2286,
      "pray": 2287,
      "spir": 2288,
      "belong": 2289,
      "feels": 2290,
      "techn": 2291,
      "difficult": 2292,
      "que": 2293,
      "##ese": 2294,
      "##owers": 2295,
      "##ama": 2296,
      "exam": 2297,
      "board": 2298,
      "uncle": 2299,
      "support": 2300,
      "american": 2301,
      "suspect": 2302,
      "government": 2303,
      "bird": 2304,
      "##ugg": 2305,
      "crap": 2306,
      "da": 2307,
      "hol": 2308,
      "##vy": 2309,
      "##ering": 2310,
      "spent": 2311,
      "calls": 2312,
      "boo": 2313,
      "level": 2314,
      "fighting": 2315,
      "defin": 2316,
      "cast": 2317,
      "san": 2318,
      "proud": 2319,
      "coffee": 2320,
      "whether": 2321,
      "dut": 2322,
      "jer": 2323,
      "tar": 2324,
      "##bi": 2325,
      "##work": 2326,
      "bob": 2327,
      "wonderful": 2328,
      "##view": 2329,
      "\".": 2330,
      "tired": 2331,
      "forever": 2332,
      "swear": 2333,
      "general": 2334,
      "hungry": 2335,
      "gentlemen": 2336,
      "##pon": 2337,
      "##ots": 2338,
      "scene": 2339,
      "glass": 2340,
      "hotel": 2341,
      "north": 2342,
      "computer": 2343,
      "##ograph": 2344,
      "ce": 2345,
      "gas": 2346,
      "##ern": 2347,
      "apartment": 2348,
      "hide": 2349,
      "truck": 2350,
      "##ivers": 2351,
      "miles": 2352,
      "##line": 2353,
      "##ium": 2354,
      "##yle": 2355,
      "##iday": 2356,
      "sudd": 2357,
      "apprec": 2358,
      "account": 2359,
      "apolog": 2360,
      "##gram": 2361,
      "private": 2362,
      "sudden": 2363,
      "cust": 2364,
      "sen": 2365,
      "vill": 2366,
      "##ael": 2367,
      "suit": 2368,
      "eight": 2369,
      "lim": 2370,
      "wood": 2371,
      "##ru": 2372,
      "##zz": 2373,
      "rev": 2374,
      "deser": 2375,
      "standing": 2376,
      "magic": 2377,
      "ben": 2378,
      "trick": 2379,
      "army": 2380,
      "blue": 2381,
      "hurry": 2382,
      "position": 2383,
      "risk": 2384,
      "sand": 2385,
      "sens": 2386,
      "area": 2387,
      "lovely": 2388,
      "problems": 2389,
      "fur": 2390,
      "ir": 2391,
      "lay": 2392,
      "##iter": 2393,
      "summ": 2394,
      "##ption": 2395,
      "intern": 2396,
      "soul": 2397,
      "judge": 2398,
      "absol": 2399,
      "upset": 2400,
      "group": 2401,
      "gh": 2402,
      "mass": 2403,
      "##iest": 2404,
      "##irty": 2405,
      "##ills": 2406,
      "amb": 2407,
      "idiot": 2408,
      "seriously": 2409,
      "figured": 2410,
      "colle": 2411,
      "disappear": 2412,
      "major": 2413,
      "mount": 2414,
      "sitting": 2415,
      "wake": 2416,
      "##und": 2417,
      "##ural": 2418,
      "##ify": 2419,
      "quiet": 2420,
      "putting": 2421,
      "##wards": 2422,
      "address": 2423,
      "certainly": 2424,
      "##ination": 2425,
      "##uts": 2426,
      "within": 2427,
      "prove": 2428,
      "##riage": 2429,
      "evening": 2430,
      "ray": 2431,
      "##ges": 2432,
      "shop": 2433,
      "##uction": 2434,
      "piss": 2435,
      "##atic": 2436,
      "store": 2437,
      "stuck": 2438,
      "neigh": 2439,
      "##une": 2440,
      "##ending": 2441,
      "conc": 2442,
      "##uthor": 2443,
      "green": 2444,
      "service": 2445,
      "boat": 2446,
      "forgive": 2447,
      "possib": 2448,
      "interested": 2449,
      "besides": 2450,
      "mike": 2451,
      "##aur": 2452,
      "##cri": 2453,
      "##que": 2454,
      "doc": 2455,
      "##icated": 2456,
      "lived": 2457,
      "arri": 2458,
      "##ife": 2459,
      "missed": 2460,
      "impress": 2461,
      "charge": 2462,
      "elect": 2463,
      "neighb": 2464,
      "dav": 2465,
      "##mas": 2466,
      "##erm": 2467,
      "max": 2468,
      "remind": 2469,
      "mission": 2470,
      "bloody": 2471,
      "##attle": 2472,
      "calm": 2473,
      "discuss": 2474,
      "absolute": 2475,
      "hy": 2476,
      "##rect": 2477,
      "convers": 2478,
      "forgot": 2479,
      "deliver": 2480,
      "dying": 2481,
      "hom": 2482,
      "##tle": 2483,
      "##oid": 2484,
      "##ived": 2485,
      "helping": 2486,
      "attention": 2487,
      "buddy": 2488,
      "buck": 2489,
      "##iny": 2490,
      "##ices": 2491,
      "block": 2492,
      "##itely": 2493,
      "esp": 2494,
      "extra": 2495,
      "bast": 2496,
      "cash": 2497,
      "##ai": 2498,
      "##urch": 2499,
      "neg": 2500,
      "##tern": 2501,
      "ash": 2502,
      "partner": 2503,
      "staying": 2504,
      "college": 2505,
      "fed": 2506,
      "van": 2507,
      "##ging": 2508,
      "##ann": 2509,
      "agree": 2510,
      "famil": 2511,
      "plane": 2512,
      "charlie": 2513,
      "##...": 2514,
      "crew": 2515,
      "inn": 2516,
      "planet": 2517,
      "kar": 2518,
      "tree": 2519,
      "vir": 2520,
      "##vin": 2521,
      "##itary": 2522,
      "earl": 2523,
      "cab": 2524,
      "vide": 2525,
      "##ana": 2526,
      "##stairs": 2527,
      "french": 2528,
      "feelings": 2529,
      "simple": 2530,
      "est": 2531,
      "hook": 2532,
      "occ": 2533,
      "weak": 2534,
      "##ob": 2535,
      "church": 2536,
      "prec": 2537,
      "christmas": 2538,
      "michael": 2539,
      "rain": 2540,
      "draw": 2541,
      "godd": 2542,
      "ble": 2543,
      "lu": 2544,
      "##ker": 2545,
      "##gress": 2546,
      "##bert": 2547,
      "##ission": 2548,
      "marriage": 2549,
      "passed": 2550,
      "obs": 2551,
      "america": 2552,
      "bastard": 2553,
      "fit": 2554,
      "jul": 2555,
      "##ipped": 2556,
      "##hood": 2557,
      "program": 2558,
      "holy": 2559,
      "ident": 2560,
      "holding": 2561,
      "evil": 2562,
      "connect": 2563,
      "queen": 2564,
      "feed": 2565,
      "tre": 2566,
      "##ered": 2567,
      "##ena": 2568,
      "sher": 2569,
      "event": 2570,
      "finished": 2571,
      ".'": 2572,
      "jail": 2573,
      "##pe": 2574,
      "##pose": 2575,
      "angry": 2576,
      "driving": 2577,
      "##ries": 2578,
      "careful": 2579,
      "walking": 2580,
      "aut": 2581,
      "pun": 2582,
      "tast": 2583,
      "##akes": 2584,
      "##par": 2585,
      "comfort": 2586,
      "cops": 2587,
      "closer": 2588,
      "##ising": 2589,
      "##eart": 2590,
      "loves": 2591,
      "##ager": 2592,
      "sweeth": 2593,
      "weekend": 2594,
      "seconds": 2595,
      "paul": 2596,
      "hen": 2597,
      "##go": 2598,
      "##ces": 2599,
      "##rog": 2600,
      "host": 2601,
      "broken": 2602,
      "gener": 2603,
      "simp": 2604,
      "surprise": 2605,
      "horse": 2606,
      "circ": 2607,
      "involved": 2608,
      "bow": 2609,
      "band": 2610,
      "tight": 2611,
      "tur": 2612,
      "##thy": 2613,
      "##itor": 2614,
      "fort": 2615,
      "fresh": 2616,
      "cred": 2617,
      "incl": 2618,
      "machine": 2619,
      "definitely": 2620,
      "sweetheart": 2621,
      "luc": 2622,
      "wound": 2623,
      "wine": 2624,
      "##lin": 2625,
      "##oh": 2626,
      "##ened": 2627,
      "likes": 2628,
      "prov": 2629,
      "became": 2630,
      "cy": 2631,
      "dig": 2632,
      "gay": 2633,
      "west": 2634,
      "##eat": 2635,
      "everywhere": 2636,
      "gives": 2637,
      "confir": 2638,
      "aud": 2639,
      "rules": 2640,
      "yell": 2641,
      "##bing": 2642,
      "herself": 2643,
      "guest": 2644,
      "pregn": 2645,
      "kidding": 2646,
      "discover": 2647,
      "warm": 2648,
      "detail": 2649,
      "direct": 2650,
      "appreciate": 2651,
      "espec": 2652,
      "bunch": 2653,
      "race": 2654,
      "vol": 2655,
      "usually": 2656,
      "price": 2657,
      "blind": 2658,
      "accord": 2659,
      "sleeping": 2660,
      "george": 2661,
      "lawyer": 2662,
      "especially": 2663,
      "author": 2664,
      "##ral": 2665,
      "##ners": 2666,
      "bell": 2667,
      "spo": 2668,
      "hadn": 2669,
      "skin": 2670,
      "pleasure": 2671,
      "ghost": 2672,
      "ow": 2673,
      "##etic": 2674,
      "##els": 2675,
      "stole": 2676,
      "doubt": 2677,
      "success": 2678,
      "absolutely": 2679,
      "equ": 2680,
      "ju": 2681,
      "mal": 2682,
      "pu": 2683,
      "neck": 2684,
      "##ender": 2685,
      "##ement": 2686,
      "joe": 2687,
      "alex": 2688,
      "file": 2689,
      "nine": 2690,
      "russ": 2691,
      "##ius": 2692,
      "##fet": 2693,
      "third": 2694,
      "##ask": 2695,
      "freak": 2696,
      "whose": 2697,
      "drunk": 2698,
      "##ished": 2699,
      "phys": 2700,
      "obviously": 2701,
      "camera": 2702,
      "eating": 2703,
      "river": 2704,
      "above": 2705,
      "##place": 2706,
      "wrote": 2707,
      "appar": 2708,
      "learned": 2709,
      "effect": 2710,
      "civ": 2711,
      "dick": 2712,
      "path": 2713,
      "##lt": 2714,
      "##how": 2715,
      "introd": 2716,
      "relax": 2717,
      "cute": 2718,
      "correct": 2719,
      "ba": 2720,
      "fol": 2721,
      "shar": 2722,
      "##ental": 2723,
      "chuck": 2724,
      "choose": 2725,
      "letter": 2726,
      "##itted": 2727,
      "keeping": 2728,
      "emot": 2729,
      "wondering": 2730,
      "sym": 2731,
      "scream": 2732,
      "danc": 2733,
      "dirty": 2734,
      "pan": 2735,
      "##mer": 2736,
      "##por": 2737,
      "##over": 2738,
      "often": 2739,
      "##ended": 2740,
      "crack": 2741,
      "huge": 2742,
      "##ossible": 2743,
      "##ences": 2744,
      "hiding": 2745,
      "jour": 2746,
      "##gu": 2747,
      "speaking": 2748,
      "ourselves": 2749,
      "##ploy": 2750,
      "afterno": 2751,
      "bigger": 2752,
      "apart": 2753,
      "military": 2754,
      "profess": 2755,
      "##ett": 2756,
      "island": 2757,
      "champ": 2758,
      "organ": 2759,
      "spot": 2760,
      "acting": 2761,
      "flight": 2762,
      "turns": 2763,
      "impossible": 2764,
      "##ensive": 2765,
      "##ancy": 2766,
      "drinking": 2767,
      "medical": 2768,
      "patient": 2769,
      "lt": 2770,
      "##ature": 2771,
      "##pper": 2772,
      "willing": 2773,
      "cup": 2774,
      "dare": 2775,
      "nick": 2776,
      "##ino": 2777,
      "wild": 2778,
      "necess": 2779,
      "##roll": 2780,
      "trial": 2781,
      "quit": 2782,
      "hole": 2783,
      "appear": 2784,
      "teacher": 2785,
      "afternoon": 2786,
      "east": 2787,
      "tour": 2788,
      "cho": 2789,
      "##ergy": 2790,
      "peter": 2791,
      "hoping": 2792,
      "spirit": 2793,
      "conversation": 2794,
      "according": 2795,
      "jen": 2796,
      "beer": 2797,
      "speed": 2798,
      "themselves": 2799,
      "blame": 2800,
      "joke": 2801,
      "##uel": 2802,
      "fuckin": 2803,
      "keeps": 2804,
      "common": 2805,
      "picked": 2806,
      "following": 2807,
      "##ology": 2808,
      "admit": 2809,
      "owe": 2810,
      "##ients": 2811,
      "...?": 2812,
      "clim": 2813,
      "access": 2814,
      "##reme": 2815,
      "ali": 2816,
      "helped": 2817,
      "##ips": 2818,
      "mail": 2819,
      "phil": 2820,
      "assist": 2821,
      "tele": 2822,
      "shooting": 2823,
      "allowed": 2824,
      "civil": 2825,
      "named": 2826,
      "##eg": 2827,
      "##ov": 2828,
      "##iam": 2829,
      "process": 2830,
      "crim": 2831,
      "quar": 2832,
      "##mediate": 2833,
      "##velop": 2834,
      "apparently": 2835,
      "nur": 2836,
      "ya": 2837,
      "##lebr": 2838,
      "##ches": 2839,
      "seemed": 2840,
      "exist": 2841,
      "spl": 2842,
      "listening": 2843,
      "pictures": 2844,
      "locked": 2845,
      "experience": 2846,
      "quickly": 2847,
      "drugs": 2848,
      "continue": 2849,
      "empty": 2850,
      "goddam": 2851,
      "code": 2852,
      "dump": 2853,
      "double": 2854,
      "liked": 2855,
      "immediate": 2856,
      "##shit": 2857,
      "books": 2858,
      "professor": 2859,
      "'.": 2860,
      "sac": 2861,
      "##uten": 2862,
      "plenty": 2863,
      "##ulous": 2864,
      "moon": 2865,
      "sever": 2866,
      "faith": 2867,
      "played": 2868,
      "brothers": 2869,
      "radio": 2870,
      "celebr": 2871,
      "innoc": 2872,
      "bare": 2873,
      "jew": 2874,
      "##onel": 2875,
      "worst": 2876,
      "##iel": 2877,
      "arms": 2878,
      "crow": 2879,
      "scar": 2880,
      "poison": 2881,
      "partic": 2882,
      "surg": 2883,
      "decision": 2884,
      "checked": 2885,
      "harm": 2886,
      "medic": 2887,
      "bathroom": 2888,
      "request": 2889,
      "earlier": 2890,
      "'?": 2891,
      "du": 2892,
      "egg": 2893,
      "gang": 2894,
      "kitch": 2895,
      "lou": 2896,
      "names": 2897,
      "vie": 2898,
      "perform": 2899,
      "english": 2900,
      "german": 2901,
      "detective": 2902,
      "eh": 2903,
      "fbi": 2904,
      "##yal": 2905,
      "##con": 2906,
      "##illy": 2907,
      "emerg": 2908,
      "showed": 2909,
      "shoes": 2910,
      "pulled": 2911,
      "memory": 2912,
      "lieuten": 2913,
      "crying": 2914,
      "beginning": 2915,
      "##ength": 2916,
      "duty": 2917,
      "further": 2918,
      "video": 2919,
      "simply": 2920,
      "##ky": 2921,
      "##gest": 2922,
      "##wise": 2923,
      "##icide": 2924,
      "##iling": 2925,
      "whoever": 2926,
      "orders": 2927,
      "imm": 2928,
      "type": 2929,
      "david": 2930,
      "kitchen": 2931,
      "fant": 2932,
      "note": 2933,
      "##ends": 2934,
      "bless": 2935,
      "polit": 2936,
      "collect": 2937,
      "rule": 2938,
      "pregnant": 2939,
      "view": 2940,
      "cow": 2941,
      "hat": 2942,
      "mum": 2943,
      "pig": 2944,
      "port": 2945,
      "ur": 2946,
      "##row": 2947,
      "##fast": 2948,
      "chair": 2949,
      "goodby": 2950,
      "##ival": 2951,
      "lights": 2952,
      "department": 2953,
      "pressure": 2954,
      "weapon": 2955,
      "claim": 2956,
      "mate": 2957,
      "ol": 2958,
      "##uit": 2959,
      "##cy": 2960,
      "##oming": 2961,
      "inj": 2962,
      "sha": 2963,
      "##oop": 2964,
      "neither": 2965,
      "##ards": 2966,
      "##astic": 2967,
      "develop": 2968,
      "film": 2969,
      "favorite": 2970,
      "fle": 2971,
      "ly": 2972,
      "yo": 2973,
      "##ented": 2974,
      "somehow": 2975,
      "client": 2976,
      "result": 2977,
      "restaur": 2978,
      "easier": 2979,
      "corner": 2980,
      "##aked": 2981,
      "sweetie": 2982,
      "terror": 2983,
      "heaven": 2984,
      "escape": 2985,
      "##hole": 2986,
      "lieutenant": 2987,
      "!\"": 2988,
      "battle": 2989,
      "fem": 2990,
      "mc": 2991,
      "vac": 2992,
      "##bit": 2993,
      "##ero": 2994,
      "##ica": 2995,
      "##iced": 2996,
      "##ires": 2997,
      "##ceed": 2998,
      "closed": 2999,
      "energy": 3000,
      "research": 3001,
      "henry": 3002,
      "goodbye": 3003,
      "base": 3004,
      "ken": 3005,
      "ver": 3006,
      "##aly": 3007,
      "upon": 3008,
      "##ained": 3009,
      "print": 3010,
      "spoke": 3011,
      "ways": 3012,
      "crash": 3013,
      "lots": 3014,
      "breakfast": 3015,
      "bullshit": 3016,
      "##fortun": 3017,
      "heavy": 3018,
      "enemy": 3019,
      "##pa": 3020,
      "##ises": 3021,
      "reading": 3022,
      "##ilty": 3023,
      "guilty": 3024,
      "unfortun": 3025,
      "switch": 3026,
      "attract": 3027,
      "surr": 3028,
      "shock": 3029,
      "raise": 3030,
      "suddenly": 3031,
      "summer": 3032,
      "bod": 3033,
      "sight": 3034,
      "##old": 3035,
      "##xic": 3036,
      "bey": 3037,
      "notice": 3038,
      "soft": 3039,
      "##ooper": 3040,
      "##aped": 3041,
      "seat": 3042,
      "mary": 3043,
      "##ealous": 3044,
      "built": 3045,
      "pretend": 3046,
      "finger": 3047,
      "ooh": 3048,
      "rout": 3049,
      "##iar": 3050,
      "##iers": 3051,
      "##gar": 3052,
      "##inary": 3053,
      "mel": 3054,
      "knife": 3055,
      "however": 3056,
      "bridge": 3057,
      "##ortun": 3058,
      "fired": 3059,
      "design": 3060,
      "surprised": 3061,
      "survive": 3062,
      "opportun": 3063,
      "village": 3064,
      "mix": 3065,
      "nerv": 3066,
      "plus": 3067,
      "plans": 3068,
      "deb": 3069,
      "scient": 3070,
      "difference": 3071,
      "incred": 3072,
      "goddamn": 3073,
      "mid": 3074,
      "stories": 3075,
      "load": 3076,
      "sword": 3077,
      "kidna": 3078,
      "student": 3079,
      "market": 3080,
      "bust": 3081,
      "jane": 3082,
      "ms": 3083,
      "##let": 3084,
      "##arm": 3085,
      "project": 3086,
      "among": 3087,
      "grad": 3088,
      "serge": 3089,
      "interview": 3090,
      "divor": 3091,
      "bene": 3092,
      "##ka": 3093,
      "states": 3094,
      "##ional": 3095,
      "unc": 3096,
      "smile": 3097,
      "contract": 3098,
      "sky": 3099,
      "records": 3100,
      "subject": 3101,
      "folks": 3102,
      "beyond": 3103,
      "nervous": 3104,
      "odd": 3105,
      "pool": 3106,
      "##iation": 3107,
      "knowing": 3108,
      "places": 3109,
      "##itten": 3110,
      "unl": 3111,
      "separ": 3112,
      "otherwise": 3113,
      "term": 3114,
      "defense": 3115,
      "##eased": 3116,
      "restaurant": 3117,
      "ign": 3118,
      "jealous": 3119,
      "lond": 3120,
      "ug": 3121,
      "##ray": 3122,
      "##sc": 3123,
      "heat": 3124,
      "##icious": 3125,
      "....": 3126,
      "stol": 3127,
      "##aint": 3128,
      "proof": 3129,
      "tells": 3130,
      "##rib": 3131,
      "decide": 3132,
      "purpose": 3133,
      "arrested": 3134,
      "losing": 3135,
      "sheriff": 3136,
      "includ": 3137,
      "london": 3138,
      "aunt": 3139,
      "cre": 3140,
      "##aff": 3141,
      "##ault": 3142,
      "##hol": 3143,
      "##wood": 3144,
      "##**": 3145,
      "threw": 3146,
      "##itude": 3147,
      "##ential": 3148,
      "##antic": 3149,
      "science": 3150,
      "focus": 3151,
      "final": 3152,
      "promised": 3153,
      "##iety": 3154,
      "concerned": 3155,
      "custom": 3156,
      "innocent": 3157,
      "stolen": 3158,
      "cree": 3159,
      "ted": 3160,
      "itself": 3161,
      "weight": 3162,
      "##elle": 3163,
      "letting": 3164,
      "twice": 3165,
      "cock": 3166,
      "prefer": 3167,
      "starts": 3168,
      "heads": 3169,
      "planning": 3170,
      "beach": 3171,
      "text": 3172,
      "colonel": 3173,
      "dreams": 3174,
      "honestly": 3175,
      "arrived": 3176,
      "surgery": 3177,
      "dry": 3178,
      "fe": 3179,
      "sant": 3180,
      "sake": 3181,
      "##ring": 3182,
      "tow": 3183,
      "shirt": 3184,
      "##aced": 3185,
      "exec": 3186,
      "clock": 3187,
      "agreed": 3188,
      "carl": 3189,
      "action": 3190,
      "color": 3191,
      "bullet": 3192,
      "natural": 3193,
      "cous": 3194,
      "dat": 3195,
      "nar": 3196,
      "punch": 3197,
      "sna": 3198,
      "##time": 3199,
      "##gy": 3200,
      "thro": 3201,
      "meat": 3202,
      "##icate": 3203,
      "cand": 3204,
      "##rop": 3205,
      "friday": 3206,
      "sund": 3207,
      "smoke": 3208,
      "local": 3209,
      "responsible": 3210,
      "immediately": 3211,
      "emergency": 3212,
      "freed": 3213,
      "##dom": 3214,
      "##ki": 3215,
      "arch": 3216,
      "grace": 3217,
      "coach": 3218,
      "shows": 3219,
      "shower": 3220,
      "bringing": 3221,
      "ridic": 3222,
      "animal": 3223,
      "ban": 3224,
      "eur": 3225,
      "mama": 3226,
      "ry": 3227,
      "rub": 3228,
      "##gs": 3229,
      "anc": 3230,
      "shad": 3231,
      "waste": 3232,
      "lied": 3233,
      "deg": 3234,
      "capt": 3235,
      "dropped": 3236,
      "copy": 3237,
      "hanging": 3238,
      "nature": 3239,
      "demand": 3240,
      "recognize": 3241,
      "several": 3242,
      "due": 3243,
      "gather": 3244,
      "lang": 3245,
      "rough": 3246,
      "sour": 3247,
      "##pir": 3248,
      "##pos": 3249,
      "##house": 3250,
      "##oned": 3251,
      "gotten": 3252,
      "trad": 3253,
      "brit": 3254,
      "fucked": 3255,
      "older": 3256,
      "clearly": 3257,
      "walked": 3258,
      "susp": 3259,
      "danny": 3260,
      "practice": 3261,
      "chicken": 3262,
      "credit": 3263,
      "gal": 3264,
      "pound": 3265,
      "pants": 3266,
      "rand": 3267,
      "wol": 3268,
      "witch": 3269,
      "##ole": 3270,
      "##her": 3271,
      "##ining": 3272,
      "##itions": 3273,
      "stat": 3274,
      "stage": 3275,
      "manage": 3276,
      "writing": 3277,
      "beauty": 3278,
      "damage": 3279,
      "complicated": 3280,
      "object": 3281,
      "dogs": 3282,
      "profession": 3283,
      "bal": 3284,
      "teeth": 3285,
      "##nie": 3286,
      "shame": 3287,
      "justice": 3288,
      "plant": 3289,
      "hearing": 3290,
      "finding": 3291,
      "thoughts": 3292,
      "desper": 3293,
      "##otten": 3294,
      "study": 3295,
      "papers": 3296,
      "weapons": 3297,
      "investigation": 3298,
      "cooper": 3299,
      "james": 3300,
      "##ror": 3301,
      "##head": 3302,
      "##fuck": 3303,
      "wheel": 3304,
      "stock": 3305,
      "##ument": 3306,
      "harry": 3307,
      "center": 3308,
      "photograph": 3309,
      "prepare": 3310,
      "bodies": 3311,
      "sergeant": 3312,
      "##vies": 3313,
      "##ators": 3314,
      "tony": 3315,
      "##usion": 3316,
      "##ita": 3317,
      "##sec": 3318,
      "breaking": 3319,
      "famous": 3320,
      "paris": 3321,
      "##iverse": 3322,
      "##ocol": 3323,
      "powerful": 3324,
      "murdered": 3325,
      "legs": 3326,
      "afford": 3327,
      "flying": 3328,
      "animals": 3329,
      "dollars": 3330,
      "target": 3331,
      "ridiculous": 3332,
      "fake": 3333,
      "gard": 3334,
      "non": 3335,
      "rush": 3336,
      "tape": 3337,
      "##oon": 3338,
      "##vious": 3339,
      "held": 3340,
      "##icle": 3341,
      "stone": 3342,
      "upstairs": 3343,
      "tru": 3344,
      "enc": 3345,
      "unit": 3346,
      "cars": 3347,
      "pock": 3348,
      "accom": 3349,
      "ordered": 3350,
      "horrible": 3351,
      "bottle": 3352,
      "large": 3353,
      "travel": 3354,
      "cos": 3355,
      "dy": 3356,
      "##light": 3357,
      "##night": 3358,
      "##ha": 3359,
      "##for": 3360,
      "##using": 3361,
      "lift": 3362,
      "chall": 3363,
      "driver": 3364,
      "grave": 3365,
      "cream": 3366,
      "perm": 3367,
      "resc": 3368,
      "heading": 3369,
      "appoint": 3370,
      "motherfuck": 3371,
      "explos": 3372,
      "milk": 3373,
      "engine": 3374,
      "photo": 3375,
      "sarah": 3376,
      "necessary": 3377,
      "opportunity": 3378,
      "hill": 3379,
      "jam": 3380,
      "mic": 3381,
      "##rass": 3382,
      "##ses": 3383,
      "stab": 3384,
      "storm": 3385,
      "chem": 3386,
      "##cell": 3387,
      "##iles": 3388,
      "prin": 3389,
      "meaning": 3390,
      "remain": 3391,
      "believed": 3392,
      "swim": 3393,
      "embar": 3394,
      "recover": 3395,
      "ideas": 3396,
      "descri": 3397,
      "farm": 3398,
      "aware": 3399,
      "excited": 3400,
      "snow": 3401,
      "##idden": 3402,
      "issue": 3403,
      "crowd": 3404,
      "ugly": 3405,
      "sunday": 3406,
      "ber": 3407,
      "size": 3408,
      "##ald": 3409,
      "##father": 3410,
      "##wh": 3411,
      "fore": 3412,
      "...\"": 3413,
      "movies": 3414,
      "spee": 3415,
      "joy": 3416,
      "smo": 3417,
      "paying": 3418,
      "barely": 3419,
      "unfortunately": 3420,
      "bang": 3421,
      "fund": 3422,
      "ii": 3423,
      "national": 3424,
      "ros": 3425,
      "ther": 3426,
      "##inct": 3427,
      "##ids": 3428,
      "const": 3429,
      "brea": 3430,
      "bright": 3431,
      "taught": 3432,
      "adam": 3433,
      "greatest": 3434,
      "employ": 3435,
      "biggest": 3436,
      "attem": 3437,
      "settle": 3438,
      "leader": 3439,
      "training": 3440,
      "darling": 3441,
      "neighbor": 3442,
      "embarrass": 3443,
      "cart": 3444,
      "fif": 3445,
      "ty": 3446,
      "##iant": 3447,
      "##nam": 3448,
      "##ya": 3449,
      "##zen": 3450,
      "##erence": 3451,
      "##ara": 3452,
      "leaves": 3453,
      "##achel": 3454,
      "career": 3455,
      "warning": 3456,
      "awful": 3457,
      "extreme": 3458,
      "cards": 3459,
      "illeg": 3460,
      "bottom": 3461,
      "particular": 3462,
      "lat": 3463,
      "mort": 3464,
      "net": 3465,
      "roof": 3466,
      "##ees": 3467,
      "##ued": 3468,
      "##gas": 3469,
      "##erc": 3470,
      "##asc": 3471,
      "nowhere": 3472,
      "grant": 3473,
      "tax": 3474,
      "desk": 3475,
      "numbers": 3476,
      "curr": 3477,
      "balls": 3478,
      "advice": 3479,
      "fellow": 3480,
      "demon": 3481,
      "spread": 3482,
      "female": 3483,
      "freedom": 3484,
      "europe": 3485,
      "cit": 3486,
      "math": 3487,
      "nav": 3488,
      "ought": 3489,
      "##nes": 3490,
      "toil": 3491,
      "forced": 3492,
      "nose": 3493,
      "butt": 3494,
      "fred": 3495,
      "##essed": 3496,
      "##ille": 3497,
      "prince": 3498,
      "spell": 3499,
      "sees": 3500,
      "##aret": 3501,
      "broad": 3502,
      "kinda": 3503,
      "compet": 3504,
      "release": 3505,
      "matters": 3506,
      "lately": 3507,
      "guns": 3508,
      "operation": 3509,
      "approach": 3510,
      "jeff": 3511,
      "jimmy": 3512,
      "possibly": 3513,
      "dom": 3514,
      "mac": 3515,
      "picking": 3516,
      "##igger": 3517,
      "universe": 3518,
      "headed": 3519,
      "charac": 3520,
      "painting": 3521,
      "stars": 3522,
      "expecting": 3523,
      "total": 3524,
      "richard": 3525,
      "##board": 3526,
      "strike": 3527,
      "cake": 3528,
      "faster": 3529,
      "led": 3530,
      "##oved": 3531,
      "##rey": 3532,
      "onto": 3533,
      "##ites": 3534,
      "##lect": 3535,
      "orig": 3536,
      "grown": 3537,
      "written": 3538,
      "realized": 3539,
      "##ibility": 3540,
      "signal": 3541,
      "##easure": 3542,
      "soldiers": 3543,
      "condition": 3544,
      "prepared": 3545,
      "taste": 3546,
      "bay": 3547,
      "borrow": 3548,
      "ell": 3549,
      "loud": 3550,
      "loose": 3551,
      "silly": 3552,
      "tear": 3553,
      "##lan": 3554,
      "##bb": 3555,
      "##under": 3556,
      "##ored": 3557,
      "##though": 3558,
      "pred": 3559,
      "##osh": 3560,
      "strength": 3561,
      "flowers": 3562,
      "turning": 3563,
      "##ground": 3564,
      "regret": 3565,
      "keys": 3566,
      "laughing": 3567,
      "created": 3568,
      "destroyed": 3569,
      "##rupt": 3570,
      "families": 3571,
      "virg": 3572,
      "bleed": 3573,
      "dumb": 3574,
      "jap": 3575,
      "lone": 3576,
      "mat": 3577,
      "naked": 3578,
      "##rant": 3579,
      "##hip": 3580,
      "##uses": 3581,
      "reb": 3582,
      "reven": 3583,
      "lies": 3584,
      "##amb": 3585,
      "##ston": 3586,
      "likely": 3587,
      "log": 3588,
      "intell": 3589,
      "asshole": 3590,
      "attorn": 3591,
      "personally": 3592,
      "hurts": 3593,
      "grandpa": 3594,
      "sending": 3595,
      "instr": 3596,
      "legal": 3597,
      "cousin": 3598,
      "attorney": 3599,
      "bon": 3600,
      "iron": 3601,
      "##ique": 3602,
      "##uff": 3603,
      "##isa": 3604,
      "franc": 3605,
      "brand": 3606,
      "funeral": 3607,
      "specific": 3608,
      "papa": 3609,
      "concern": 3610,
      "social": 3611,
      "dancing": 3612,
      "criminal": 3613,
      "throat": 3614,
      "fro": 3615,
      "mut": 3616,
      "page": 3617,
      "##kin": 3618,
      "##za": 3619,
      "##leep": 3620,
      "noticed": 3621,
      "although": 3622,
      "suicide": 3623,
      "comb": 3624,
      "letters": 3625,
      "crush": 3626,
      "parts": 3627,
      "gods": 3628,
      "stayed": 3629,
      "minister": 3630,
      "assum": 3631,
      "invited": 3632,
      "devil": 3633,
      "kicked": 3634,
      "angel": 3635,
      "mater": 3636,
      "oil": 3637,
      "pin": 3638,
      "pee": 3639,
      "rum": 3640,
      "##ipp": 3641,
      "saving": 3642,
      "activ": 3643,
      "opin": 3644,
      "slept": 3645,
      "giant": 3646,
      "airport": 3647,
      "##load": 3648,
      "commander": 3649,
      "failed": 3650,
      "apologize": 3651,
      "cig": 3652,
      "cure": 3653,
      "cult": 3654,
      "corr": 3655,
      "dna": 3656,
      "fal": 3657,
      "gro": 3658,
      "vamp": 3659,
      "##lor": 3660,
      "##book": 3661,
      "##die": 3662,
      "##well": 3663,
      "##orter": 3664,
      "##imate": 3665,
      "asleep": 3666,
      "##elly": 3667,
      "serve": 3668,
      "babe": 3669,
      "planned": 3670,
      "ends": 3671,
      "defend": 3672,
      "property": 3673,
      "avoid": 3674,
      "comfortable": 3675,
      "details": 3676,
      "truly": 3677,
      "japan": 3678,
      "kim": 3679,
      "meal": 3680,
      "powers": 3681,
      "##bur": 3682,
      "##acle": 3683,
      "chest": 3684,
      "exch": 3685,
      "princ": 3686,
      "grade": 3687,
      "surf": 3688,
      "ended": 3689,
      "dealing": 3690,
      "paint": 3691,
      "singing": 3692,
      "members": 3693,
      "received": 3694,
      "sacr": 3695,
      "fan": 3696,
      "gy": 3697,
      "games": 3698,
      "hyp": 3699,
      "map": 3700,
      "##rom": 3701,
      "##off": 3702,
      "##ule": 3703,
      "##ato": 3704,
      "##thin": 3705,
      "##ason": 3706,
      "ham": 3707,
      "##lder": 3708,
      "stan": 3709,
      "sport": 3710,
      "amount": 3711,
      "adult": 3712,
      "strang": 3713,
      "reality": 3714,
      "brings": 3715,
      "drinks": 3716,
      "bedroom": 3717,
      "distur": 3718,
      "based": 3719,
      "pieces": 3720,
      "victims": 3721,
      "fingers": 3722,
      "including": 3723,
      "gate": 3724,
      "pil": 3725,
      "tit": 3726,
      "##ration": 3727,
      "##down": 3728,
      "##iod": 3729,
      "##ga": 3730,
      "##ality": 3731,
      "aband": 3732,
      "whenever": 3733,
      "united": 3734,
      "afric": 3735,
      "scre": 3736,
      "hardly": 3737,
      "tommy": 3738,
      "##gged": 3739,
      "director": 3740,
      "location": 3741,
      "community": 3742,
      "deserve": 3743,
      "punish": 3744,
      "speech": 3745,
      "pip": 3746,
      "##ex": 3747,
      "##ipping": 3748,
      "##gie": 3749,
      "towards": 3750,
      "brown": 3751,
      "betray": 3752,
      "male": 3753,
      "marsh": 3754,
      "nights": 3755,
      "##ighs": 3756,
      "handsome": 3757,
      "perfectly": 3758,
      "selling": 3759,
      "convinc": 3760,
      "cases": 3761,
      "bobby": 3762,
      "woods": 3763,
      "discovered": 3764,
      "princess": 3765,
      "fought": 3766,
      "##pap": 3767,
      "##rict": 3768,
      "##erve": 3769,
      "##ano": 3770,
      "##enge": 3771,
      "mexic": 3772,
      "##iment": 3773,
      "myst": 3774,
      "trace": 3775,
      "brill": 3776,
      "mayor": 3777,
      "period": 3778,
      "assume": 3779,
      "magn": 3780,
      "connection": 3781,
      "washing": 3782,
      "bucks": 3783,
      "\"...": 3784,
      "duck": 3785,
      "fre": 3786,
      "lee": 3787,
      "na": 3788,
      "pair": 3789,
      "##pond": 3790,
      "##back": 3791,
      "##nel": 3792,
      "whis": 3793,
      "weather": 3794,
      "meth": 3795,
      "chas": 3796,
      "sav": 3797,
      "progress": 3798,
      "flash": 3799,
      "##ization": 3800,
      "monster": 3801,
      "johnny": 3802,
      "transfer": 3803,
      "expensive": 3804,
      "birds": 3805,
      "introduce": 3806,
      "incredible": 3807,
      "lonely": 3808,
      ".,": 3809,
      "dating": 3810,
      "nic": 3811,
      "rose": 3812,
      "tip": 3813,
      "##field": 3814,
      "theory": 3815,
      "stom": 3816,
      "##ilities": 3817,
      "loss": 3818,
      "uns": 3819,
      "impro": 3820,
      "inspect": 3821,
      "invite": 3822,
      "began": 3823,
      "regular": 3824,
      "england": 3825,
      "cheese": 3826,
      "returned": 3827,
      "victor": 3828,
      "streets": 3829,
      "daniel": 3830,
      "positive": 3831,
      "trees": 3832,
      "nurse": 3833,
      "desperate": 3834,
      "attempt": 3835,
      "revenge": 3836,
      "ep": 3837,
      "sin": 3838,
      "sem": 3839,
      "site": 3840,
      "tiny": 3841,
      "##just": 3842,
      "##ening": 3843,
      "##eter": 3844,
      "##etch": 3845,
      "butter": 3846,
      "##ulation": 3847,
      "ears": 3848,
      "understood": 3849,
      "sooner": 3850,
      "determ": 3851,
      "billy": 3852,
      "express": 3853,
      "affect": 3854,
      "nearly": 3855,
      "disappoint": 3856,
      "health": 3857,
      "ticket": 3858,
      "example": 3859,
      "mountain": 3860,
      "eventually": 3861,
      "citiz": 3862,
      "dish": 3863,
      "una": 3864,
      "vers": 3865,
      "##ev": 3866,
      "##rate": 3867,
      "##ham": 3868,
      "##cent": 3869,
      "##fit": 3870,
      "goin": 3871,
      "##stand": 3872,
      "ate": 3873,
      "##ulations": 3874,
      "##ctors": 3875,
      "##athan": 3876,
      "crit": 3877,
      "finds": 3878,
      "surely": 3879,
      "##izing": 3880,
      "relig": 3881,
      "opened": 3882,
      "indeed": 3883,
      "sexual": 3884,
      "secrets": 3885,
      "expected": 3886,
      "attacked": 3887,
      "burned": 3888,
      "files": 3889,
      "season": 3890,
      "spring": 3891,
      "screwed": 3892,
      "disappeared": 3893,
      "cabin": 3894,
      "santa": 3895,
      "toilet": 3896,
      "brilliant": 3897,
      "bi": 3898,
      "bite": 3899,
      "hired": 3900,
      "jess": 3901,
      "lake": 3902,
      "mmm": 3903,
      "matt": 3904,
      "rome": 3905,
      "rare": 3906,
      "##ram": 3907,
      "##oe": 3908,
      "##cious": 3909,
      "haw": 3910,
      "##ils": 3911,
      "robert": 3912,
      "firm": 3913,
      "march": 3914,
      "##ounce": 3915,
      "partners": 3916,
      "##iction": 3917,
      "insane": 3918,
      "sched": 3919,
      "repres": 3920,
      "capable": 3921,
      "favour": 3922,
      "soldier": 3923,
      "value": 3924,
      "thousands": 3925,
      "martin": 3926,
      "create": 3927,
      "langu": 3928,
      "illegal": 3929,
      "princip": 3930,
      "stomach": 3931,
      "bat": 3932,
      "bones": 3933,
      "jun": 3934,
      "les": 3935,
      "patter": 3936,
      "rh": 3937,
      "range": 3938,
      "und": 3939,
      "var": 3940,
      "##ca": 3941,
      "toast": 3942,
      "##ores": 3943,
      "##ette": 3944,
      "doin": 3945,
      "##icy": 3946,
      "##iled": 3947,
      "clark": 3948,
      "mommy": 3949,
      "insur": 3950,
      "committed": 3951,
      "infl": 3952,
      "grandfather": 3953,
      "satur": 3954,
      "silver": 3955,
      "castle": 3956,
      "circum": 3957,
      "journey": 3958,
      "eggs": 3959,
      "fi": 3960,
      "fate": 3961,
      "lic": 3962,
      "pul": 3963,
      "rac": 3964,
      "vote": 3965,
      "##iven": 3966,
      "##oms": 3967,
      "doctors": 3968,
      "forest": 3969,
      "##cel": 3970,
      "##anda": 3971,
      "alco": 3972,
      "##aining": 3973,
      "veh": 3974,
      "##ieve": 3975,
      "manager": 3976,
      "ours": 3977,
      "carol": 3978,
      "assoc": 3979,
      "educ": 3980,
      "madam": 3981,
      "sisters": 3982,
      "kevin": 3983,
      "gentleman": 3984,
      "border": 3985,
      "stealing": 3986,
      "society": 3987,
      "character": 3988,
      "saturday": 3989,
      "dun": 3990,
      "fancy": 3991,
      "jake": 3992,
      "tab": 3993,
      "tank": 3994,
      "wide": 3995,
      "##val": 3996,
      "##arant": 3997,
      "wil": 3998,
      "staff": 3999,
      "fright": 4000,
      "ord": 4001,
      "brian": 4002,
      "##olution": 4003,
      "##apt": 4004,
      "roger": 4005,
      "puts": 4006,
      "flat": 4007,
      "warri": 4008,
      "jobs": 4009,
      "opening": 4010,
      "humans": 4011,
      "official": 4012,
      "covered": 4013,
      "traum": 4014,
      "traff": 4015,
      "responsibility": 4016,
      "romantic": 4017,
      "model": 4018,
      "enemies": 4019,
      "ryan": 4020,
      "opinion": 4021,
      "bound": 4022,
      "dust": 4023,
      "ward": 4024,
      "liber": 4025,
      "##antage": 4026,
      "chea": 4027,
      "##ada": 4028,
      "wanting": 4029,
      "##illed": 4030,
      "##esty": 4031,
      "trade": 4032,
      "trash": 4033,
      "##aine": 4034,
      "guarant": 4035,
      "marks": 4036,
      "runs": 4037,
      "appears": 4038,
      "charges": 4039,
      "desp": 4040,
      "behav": 4041,
      "incr": 4042,
      "students": 4043,
      "laur": 4044,
      "ashamed": 4045,
      "medicine": 4046,
      "garden": 4047,
      "therap": 4048,
      "lower": 4049,
      "oce": 4050,
      "pump": 4051,
      "tun": 4052,
      "##the": 4053,
      "forces": 4054,
      "libr": 4055,
      "trail": 4056,
      "span": 4057,
      "previously": 4058,
      "assass": 4059,
      "badly": 4060,
      "##ension": 4061,
      "signed": 4062,
      "indian": 4063,
      "newspap": 4064,
      "caused": 4065,
      "square": 4066,
      "former": 4067,
      "photos": 4068,
      "physical": 4069,
      "data": 4070,
      "intellig": 4071,
      "bol": 4072,
      "cia": 4073,
      "kir": 4074,
      "lind": 4075,
      "nut": 4076,
      "pill": 4077,
      "rent": 4078,
      "tie": 4079,
      "##you": 4080,
      "##ander": 4081,
      "loyal": 4082,
      "agre": 4083,
      "drown": 4084,
      "buying": 4085,
      "falling": 4086,
      "ruin": 4087,
      "ruined": 4088,
      "football": 4089,
      "diam": 4090,
      "mirror": 4091,
      "negot": 4092,
      "confirm": 4093,
      "split": 4094,
      "virgin": 4095,
      "exchange": 4096,
      "alcohol": 4097,
      "bond": 4098,
      "hors": 4099,
      "jan": 4100,
      "liter": 4101,
      "tu": 4102,
      "ult": 4103,
      "##mar": 4104,
      "##rick": 4105,
      "##ok": 4106,
      "##eday": 4107,
      "##isf": 4108,
      "##sey": 4109,
      "stink": 4110,
      "style": 4111,
      "cha": 4112,
      "chines": 4113,
      "##ades": 4114,
      "scott": 4115,
      "waited": 4116,
      "resist": 4117,
      "##retch": 4118,
      "confused": 4119,
      "##uced": 4120,
      "hunt": 4121,
      "answers": 4122,
      "transport": 4123,
      "basically": 4124,
      "robb": 4125,
      "affair": 4126,
      "offered": 4127,
      "boring": 4128,
      "holiday": 4129,
      "familiar": 4130,
      "source": 4131,
      "pocket": 4132,
      "rescue": 4133,
      "material": 4134,
      "chinese": 4135,
      "gall": 4136,
      "jon": 4137,
      "lines": 4138,
      "lisa": 4139,
      "puss": 4140,
      "ron": 4141,
      "wise": 4142,
      "##lies": 4143,
      "##ein": 4144,
      "shr": 4145,
      "shout": 4146,
      "wire": 4147,
      "shell": 4148,
      "##ilar": 4149,
      "mob": 4150,
      "bread": 4151,
      "amy": 4152,
      "##ache": 4153,
      "showing": 4154,
      "babies": 4155,
      "charles": 4156,
      "repeat": 4157,
      "obvious": 4158,
      "someday": 4159,
      "followed": 4160,
      "buried": 4161,
      "treatment": 4162,
      "effort": 4163,
      "pissed": 4164,
      "russian": 4165,
      "creep": 4166,
      "\",": 4167,
      "hous": 4168,
      "mult": 4169,
      "pers": 4170,
      "rot": 4171,
      "ram": 4172,
      "woke": 4173,
      "##ket": 4174,
      "##gers": 4175,
      "##inated": 4176,
      "whore": 4177,
      "##omm": 4178,
      "bee": 4179,
      "##itation": 4180,
      "france": 4181,
      "chap": 4182,
      "##ulate": 4183,
      "defe": 4184,
      "##itty": 4185,
      "sneak": 4186,
      "arrange": 4187,
      "protection": 4188,
      "experi": 4189,
      "trapped": 4190,
      "steve": 4191,
      "carrying": 4192,
      "surround": 4193,
      "ancient": 4194,
      "appointment": 4195,
      "bone": 4196,
      "link": 4197,
      "mental": 4198,
      "nuts": 4199,
      "pure": 4200,
      "rick": 4201,
      "vic": 4202,
      "##town": 4203,
      "##gust": 4204,
      "##cil": 4205,
      "whom": 4206,
      "wet": 4207,
      "hack": 4208,
      "reh": 4209,
      "replace": 4210,
      "shel": 4211,
      "safet": 4212,
      "brad": 4213,
      "disgust": 4214,
      "forgotten": 4215,
      "capital": 4216,
      "teen": 4217,
      "passion": 4218,
      "grandma": 4219,
      "stronger": 4220,
      "laid": 4221,
      "cameras": 4222,
      "growing": 4223,
      "product": 4224,
      "issues": 4225,
      "fortune": 4226,
      "alien": 4227,
      "british": 4228,
      "mystery": 4229,
      "bum": 4230,
      "nail": 4231,
      "row": 4232,
      "tied": 4233,
      "wes": 4234,
      "##ped": 4235,
      "##bles": 4236,
      "##dr": 4237,
      "##kn": 4238,
      "##cl": 4239,
      "##zy": 4240,
      "##urs": 4241,
      "cancer": 4242,
      "chocol": 4243,
      "##ecking": 4244,
      "alarm": 4245,
      "coast": 4246,
      "prev": 4247,
      "below": 4248,
      "swe": 4249,
      "flu": 4250,
      "emily": 4251,
      "disease": 4252,
      "released": 4253,
      "cutting": 4254,
      "incident": 4255,
      "vision": 4256,
      "changes": 4257,
      "americans": 4258,
      "squad": 4259,
      "satisf": 4260,
      "dressed": 4261,
      "convince": 4262,
      "tickets": 4263,
      "hundreds": 4264,
      "assistant": 4265,
      "fantastic": 4266,
      "diamond": 4267,
      "safety": 4268,
      "aver": 4269,
      "bail": 4270,
      "hidden": 4271,
      "opt": 4272,
      "rig": 4273,
      "sed": 4274,
      "seal": 4275,
      "##nal": 4276,
      "##inate": 4277,
      "repl": 4278,
      "stood": 4279,
      "##ece": 4280,
      "##ppy": 4281,
      "trigger": 4282,
      "##ateful": 4283,
      "prime": 4284,
      "priest": 4285,
      "arg": 4286,
      "prosec": 4287,
      "wherever": 4288,
      "unif": 4289,
      "twenty": 4290,
      "cares": 4291,
      "strugg": 4292,
      "assault": 4293,
      "recently": 4294,
      "warn": 4295,
      "commit": 4296,
      "shopping": 4297,
      "tongue": 4298,
      "setting": 4299,
      "points": 4300,
      "factory": 4301,
      "edge": 4302,
      "secretary": 4303,
      "changing": 4304,
      "launch": 4305,
      "##loe": 4306,
      "reached": 4307,
      "avail": 4308,
      "temper": 4309,
      "healthy": 4310,
      "mentioned": 4311,
      "extremely": 4312,
      "original": 4313,
      "language": 4314,
      "circumst": 4315,
      "aust": 4316,
      "dea": 4317,
      "faces": 4318,
      "mall": 4319,
      "pills": 4320,
      "shh": 4321,
      "noise": 4322,
      "rights": 4323,
      "cher": 4324,
      "checking": 4325,
      "chloe": 4326,
      "plate": 4327,
      "usual": 4328,
      "sale": 4329,
      "congr": 4330,
      "remove": 4331,
      "stress": 4332,
      "##icted": 4333,
      "##gging": 4334,
      "presence": 4335,
      "highly": 4336,
      "##ledge": 4337,
      "considered": 4338,
      "breathing": 4339,
      "filled": 4340,
      "glasses": 4341,
      "yellow": 4342,
      "results": 4343,
      "permission": 4344,
      "screen": 4345,
      "ach": 4346,
      "gab": 4347,
      "mood": 4348,
      "pie": 4349,
      "tap": 4350,
      "##vere": 4351,
      "##anny": 4352,
      "anna": 4353,
      "hamm": 4354,
      "notes": 4355,
      "william": 4356,
      "proced": 4357,
      "coat": 4358,
      "coinc": 4359,
      "image": 4360,
      "monday": 4361,
      "watched": 4362,
      "sett": 4363,
      "awake": 4364,
      "winter": 4365,
      "murderer": 4366,
      "##print": 4367,
      "drove": 4368,
      "raised": 4369,
      "cleaning": 4370,
      "advantage": 4371,
      "burning": 4372,
      "penny": 4373,
      "guards": 4374,
      "technology": 4375,
      "divorce": 4376,
      "false": 4377,
      "library": 4378,
      "gig": 4379,
      "jac": 4380,
      "kyle": 4381,
      "nation": 4382,
      "pete": 4383,
      "rat": 4384,
      "rachel": 4385,
      "##ford": 4386,
      "##ware": 4387,
      "loving": 4388,
      "moves": 4389,
      "##istic": 4390,
      "scary": 4391,
      "friendly": 4392,
      "served": 4393,
      "attend": 4394,
      "decl": 4395,
      "beast": 4396,
      "conference": 4397,
      "##enced": 4398,
      "shots": 4399,
      "hunting": 4400,
      "regard": 4401,
      "##ological": 4402,
      "memories": 4403,
      "reports": 4404,
      "pleased": 4405,
      "majesty": 4406,
      "violence": 4407,
      "senator": 4408,
      "wolf": 4409,
      "professional": 4410,
      "accompl": 4411,
      "cigaret": 4412,
      "pattern": 4413,
      "insurance": 4414,
      "cheap": 4415,
      "uniform": 4416,
      "bump": 4417,
      "corn": 4418,
      "fer": 4419,
      "hm": 4420,
      "rap": 4421,
      "rip": 4422,
      "tall": 4423,
      "##do": 4424,
      "ang": 4425,
      "rever": 4426,
      "reck": 4427,
      "shape": 4428,
      "yourselves": 4429,
      "button": 4430,
      "prim": 4431,
      "spare": 4432,
      "bride": 4433,
      "##osen": 4434,
      "univers": 4435,
      "intr": 4436,
      "leon": 4437,
      "holly": 4438,
      "assign": 4439,
      "useless": 4440,
      "walter": 4441,
      "easily": 4442,
      "corpor": 4443,
      "patients": 4444,
      "curious": 4445,
      "member": 4446,
      "eric": 4447,
      "walls": 4448,
      "ships": 4449,
      "statement": 4450,
      "council": 4451,
      "governor": 4452,
      "federal": 4453,
      "connected": 4454,
      "confirmed": 4455,
      "route": 4456,
      "francis": 4457,
      "bern": 4458,
      "dies": 4459,
      "ess": 4460,
      "rise": 4461,
      "wing": 4462,
      "##aken": 4463,
      "##mit": 4464,
      "##mother": 4465,
      "##han": 4466,
      "##vision": 4467,
      "##ville": 4468,
      "##omes": 4469,
      "##rel": 4470,
      "doors": 4471,
      "##vert": 4472,
      "soph": 4473,
      "##cher": 4474,
      "chat": 4475,
      "chose": 4476,
      "trap": 4477,
      "##iger": 4478,
      "excell": 4479,
      "spin": 4480,
      "brave": 4481,
      "##asty": 4482,
      "tooth": 4483,
      "scare": 4484,
      "player": 4485,
      "harder": 4486,
      "mostly": 4487,
      "genius": 4488,
      "pulling": 4489,
      "learning": 4490,
      "clever": 4491,
      "depends": 4492,
      "christian": 4493,
      "district": 4494,
      "elev": 4495,
      "billion": 4496,
      "sucks": 4497,
      "internet": 4498,
      "ambul": 4499,
      "screaming": 4500,
      "chemical": 4501,
      "surface": 4502,
      "horses": 4503,
      "ay": 4504,
      "grew": 4505,
      "nuc": 4506,
      "##da": 4507,
      "##ii": 4508,
      "##hib": 4509,
      "anger": 4510,
      "init": 4511,
      "##vey": 4512,
      "##asion": 4513,
      "beating": 4514,
      "shift": 4515,
      "stal": 4516,
      "##aming": 4517,
      "aside": 4518,
      "##ulf": 4519,
      "arth": 4520,
      "brief": 4521,
      "##uments": 4522,
      "becoming": 4523,
      "##ago": 4524,
      "gray": 4525,
      "cris": 4526,
      "crimes": 4527,
      "scan": 4528,
      "score": 4529,
      "swing": 4530,
      "flag": 4531,
      "respond": 4532,
      "owner": 4533,
      "interrupt": 4534,
      "rooms": 4535,
      "##ashed": 4536,
      "events": 4537,
      "begins": 4538,
      "hung": 4539,
      "millions": 4540,
      "leading": 4541,
      "tests": 4542,
      "officers": 4543,
      "creature": 4544,
      "circle": 4545,
      "breathe": 4546,
      "tort": 4547,
      "electric": 4548,
      "quarter": 4549,
      "shadow": 4550,
      "behavior": 4551,
      "chocolate": 4552,
      "ast": 4553,
      "bart": 4554,
      "kate": 4555,
      "lem": 4556,
      "pitch": 4557,
      "sighs": 4558,
      "task": 4559,
      "##mans": 4560,
      "##iated": 4561,
      "##gl": 4562,
      "thir": 4563,
      "thief": 4564,
      "##otic": 4565,
      "##ication": 4566,
      "##oos": 4567,
      "chosen": 4568,
      "proceed": 4569,
      "craw": 4570,
      "##anged": 4571,
      "acqu": 4572,
      "percent": 4573,
      "insist": 4574,
      "related": 4575,
      "skills": 4576,
      "exciting": 4577,
      "entr": 4578,
      "distance": 4579,
      "basement": 4580,
      "garage": 4581,
      "miracle": 4582,
      "dragon": 4583,
      "custody": 4584,
      "guests": 4585,
      "neighborhood": 4586,
      "available": 4587,
      "cave": 4588,
      "dim": 4589,
      "gee": 4590,
      "gib": 4591,
      "horn": 4592,
      "kat": 4593,
      "mile": 4594,
      "nons": 4595,
      "pier": 4596,
      "rab": 4597,
      "tan": 4598,
      "##bby": 4599,
      "cham": 4600,
      "##thern": 4601,
      "seek": 4602,
      "vegas": 4603,
      "dean": 4604,
      "env": 4605,
      "unf": 4606,
      "downstairs": 4607,
      "slip": 4608,
      "charl": 4609,
      "reasons": 4610,
      "sometime": 4611,
      "steps": 4612,
      "advent": 4613,
      "mistakes": 4614,
      "treated": 4615,
      "creatures": 4616,
      "brains": 4617,
      "direction": 4618,
      "solid": 4619,
      "oppos": 4620,
      "potential": 4621,
      "suffer": 4622,
      "belongs": 4623,
      "senior": 4624,
      "luke": 4625,
      "sharp": 4626,
      "challenge": 4627,
      "license": 4628,
      "ocean": 4629,
      "spanish": 4630,
      "congrat": 4631,
      "fu": 4632,
      "hire": 4633,
      "junk": 4634,
      "lack": 4635,
      "ox": 4636,
      "ped": 4637,
      "pink": 4638,
      "section": 4639,
      "yard": 4640,
      "##boy": 4641,
      "##can": 4642,
      "##wich": 4643,
      "thin": 4644,
      "##anch": 4645,
      "##omp": 4646,
      "andy": 4647,
      "##uted": 4648,
      "##imp": 4649,
      "##chan": 4650,
      "##sters": 4651,
      "trou": 4652,
      "alph": 4653,
      "##cks": 4654,
      "managed": 4655,
      "agents": 4656,
      "dra": 4657,
      "debt": 4658,
      "ens": 4659,
      "union": 4660,
      "blast": 4661,
      "sean": 4662,
      "##ples": 4663,
      "attitude": 4664,
      "##attered": 4665,
      "higher": 4666,
      "confess": 4667,
      "winning": 4668,
      "indust": 4669,
      "staring": 4670,
      "chris": 4671,
      "darkness": 4672,
      "terrific": 4673,
      "slowly": 4674,
      "popular": 4675,
      "searching": 4676,
      "jerry": 4677,
      "successful": 4678,
      "celebrate": 4679,
      "motherfucker": 4680,
      "foreign": 4681,
      "bleeding": 4682,
      "traffic": 4683,
      "dian": 4684,
      "jason": 4685,
      "mcc": 4686,
      "ren": 4687,
      "##of": 4688,
      "##oring": 4689,
      "online": 4690,
      "shield": 4691,
      "lifet": 4692,
      "##uries": 4693,
      "##outs": 4694,
      "##ablish": 4695,
      "clients": 4696,
      "##ifts": 4697,
      "unus": 4698,
      "##riate": 4699,
      "grateful": 4700,
      "moments": 4701,
      "monitor": 4702,
      "laws": 4703,
      "eddie": 4704,
      "wishes": 4705,
      "central": 4706,
      "counter": 4707,
      "campa": 4708,
      "jean": 4709,
      "precious": 4710,
      "climb": 4711,
      "vacation": 4712,
      "represent": 4713,
      "',": 4714,
      "kor": 4715,
      "lit": 4716,
      "lung": 4717,
      "pity": 4718,
      "rail": 4719,
      "ut": 4720,
      "wis": 4721,
      "zone": 4722,
      "##lear": 4723,
      "##bol": 4724,
      "##nis": 4725,
      "##case": 4726,
      "##erable": 4727,
      "tool": 4728,
      "web": 4729,
      "##iron": 4730,
      "chic": 4731,
      "react": 4732,
      "##ops": 4733,
      "brick": 4734,
      "clay": 4735,
      "maid": 4736,
      "believes": 4737,
      "recent": 4738,
      "warrant": 4739,
      "terms": 4740,
      "hits": 4741,
      "honour": 4742,
      "passing": 4743,
      "fallen": 4744,
      "touched": 4745,
      "lesson": 4746,
      "distract": 4747,
      "county": 4748,
      "sales": 4749,
      "spending": 4750,
      "reveal": 4751,
      "mountains": 4752,
      "spoken": 4753,
      "unlike": 4754,
      "network": 4755,
      "convinced": 4756,
      "pussy": 4757,
      "bike": 4758,
      "eth": 4759,
      "fash": 4760,
      "jose": 4761,
      "kr": 4762,
      "rate": 4763,
      "##kins": 4764,
      "##vis": 4765,
      "##ito": 4766,
      "review": 4767,
      "##oops": 4768,
      "##unte": 4769,
      "constr": 4770,
      "agency": 4771,
      "propos": 4772,
      "##iforn": 4773,
      "unh": 4774,
      "happiness": 4775,
      "##agne": 4776,
      "blank": 4777,
      "royal": 4778,
      "helps": 4779,
      "talks": 4780,
      "sweat": 4781,
      "stranger": 4782,
      "hug": 4783,
      "##phone": 4784,
      "studying": 4785,
      "californ": 4786,
      "riding": 4787,
      "expert": 4788,
      "robin": 4789,
      "admir": 4790,
      "throwing": 4791,
      "bags": 4792,
      "considering": 4793,
      "motor": 4794,
      "concl": 4795,
      "possibility": 4796,
      "virus": 4797,
      "volunte": 4798,
      "journal": 4799,
      "smoking": 4800,
      "vehicle": 4801,
      "ambulance": 4802,
      "unusual": 4803,
      "cro": 4804,
      "cath": 4805,
      "fully": 4806,
      "nin": 4807,
      "nest": 4808,
      "nap": 4809,
      "nah": 4810,
      "rear": 4811,
      "vul": 4812,
      "##af": 4813,
      "##iac": 4814,
      "thy": 4815,
      "##eau": 4816,
      "##omy": 4817,
      "##oted": 4818,
      "dozen": 4819,
      "someplace": 4820,
      "chann": 4821,
      "outta": 4822,
      "atl": 4823,
      "##illa": 4824,
      "clin": 4825,
      "cloud": 4826,
      "offense": 4827,
      "##aging": 4828,
      "kills": 4829,
      "scen": 4830,
      "wave": 4831,
      "##phy": 4832,
      "tex": 4833,
      "syn": 4834,
      "species": 4835,
      "winner": 4836,
      "protecting": 4837,
      "cheer": 4838,
      "scratch": 4839,
      "kissed": 4840,
      "rocks": 4841,
      "suffering": 4842,
      "establish": 4843,
      "provide": 4844,
      "prints": 4845,
      "separate": 4846,
      "disgusting": 4847,
      "cod": 4848,
      "drew": 4849,
      "gut": 4850,
      "hated": 4851,
      "muse": 4852,
      "rod": 4853,
      "tay": 4854,
      "tum": 4855,
      "yep": 4856,
      "zero": 4857,
      "##lock": 4858,
      "##bage": 4859,
      "##gen": 4860,
      "##gment": 4861,
      "##form": 4862,
      "##erd": 4863,
      "##enger": 4864,
      "##rell": 4865,
      "liqu": 4866,
      "alley": 4867,
      "abd": 4868,
      "china": 4869,
      "prior": 4870,
      "##istan": 4871,
      "talent": 4872,
      "##agon": 4873,
      "twist": 4874,
      "impl": 4875,
      "actual": 4876,
      "underw": 4877,
      "emma": 4878,
      "compan": 4879,
      "slight": 4880,
      "glo": 4881,
      "wondered": 4882,
      "sexy": 4883,
      "jackson": 4884,
      "magaz": 4885,
      "teaching": 4886,
      "century": 4887,
      "footage": 4888,
      "normally": 4889,
      "annivers": 4890,
      "claire": 4891,
      "dollar": 4892,
      "threatened": 4893,
      "marty": 4894,
      "anti": 4895,
      "sensitive": 4896,
      "authority": 4897,
      "champagne": 4898,
      "fantas": 4899,
      "candid": 4900,
      "degree": 4901,
      "pounds": 4902,
      "breast": 4903,
      "chasing": 4904,
      "ordinary": 4905,
      "agreement": 4906,
      "circumstances": 4907,
      "settled": 4908,
      "nonsense": 4909,
      "fashion": 4910,
      "california": 4911,
      "fever": 4912,
      "patch": 4913,
      "ross": 4914,
      "rude": 4915,
      "##ront": 4916,
      "##oying": 4917,
      "##de": 4918,
      "##den": 4919,
      "toss": 4920,
      "inject": 4921,
      "##ida": 4922,
      "shared": 4923,
      "knowledge": 4924,
      "##urt": 4925,
      "freaking": 4926,
      "fruit": 4927,
      "chances": 4928,
      "##geon": 4929,
      "sail": 4930,
      "##ula": 4931,
      "cra": 4932,
      "remains": 4933,
      "tail": 4934,
      "stays": 4935,
      "controll": 4936,
      "complex": 4937,
      "shoe": 4938,
      "decent": 4939,
      "##anced": 4940,
      "explan": 4941,
      "murders": 4942,
      "painful": 4943,
      "younger": 4944,
      "soup": 4945,
      "simon": 4946,
      "depos": 4947,
      "depress": 4948,
      "arrive": 4949,
      "basket": 4950,
      "cooking": 4951,
      "knocked": 4952,
      "sandwich": 4953,
      "gym": 4954,
      "abandoned": 4955,
      "environ": 4956,
      "campaign": 4957,
      "bac": 4958,
      "fuel": 4959,
      "horr": 4960,
      "ira": 4961,
      "josh": 4962,
      "kil": 4963,
      "kelly": 4964,
      "option": 4965,
      "rings": 4966,
      "tag": 4967,
      "vo": 4968,
      "vall": 4969,
      "wat": 4970,
      "wre": 4971,
      "##path": 4972,
      "##ios": 4973,
      "##cast": 4974,
      "thor": 4975,
      "##ini": 4976,
      "##atives": 4977,
      "##ester": 4978,
      "##rees": 4979,
      "##utation": 4980,
      "##aries": 4981,
      "habit": 4982,
      "mechan": 4983,
      "##itz": 4984,
      "shark": 4985,
      "forb": 4986,
      "golf": 4987,
      "steel": 4988,
      "liar": 4989,
      "##antly": 4990,
      "chain": 4991,
      "##acks": 4992,
      "sue": 4993,
      "exerc": 4994,
      "pride": 4995,
      "armed": 4996,
      "bra": 4997,
      "brush": 4998,
      "unkn": 4999,
      "prem": 5000,
      "greater": 5001,
      "stops": 5002,
      "commission": 5003,
      "desert": 5004,
      "movement": 5005,
      "messing": 5006,
      "similar": 5007,
      "colour": 5008,
      "register": 5009,
      "jacket": 5010,
      "stopping": 5011,
      "chef": 5012,
      "laughs": 5013,
      "escaped": 5014,
      "require": 5015,
      "silent": 5016,
      "larry": 5017,
      "roman": 5018,
      "emotion": 5019,
      "television": 5020,
      "political": 5021,
      "midnight": 5022,
      "instruct": 5023,
      "washington": 5024,
      "disappointed": 5025,
      "intelligence": 5026,
      "robbery": 5027,
      "houses": 5028,
      "lifetime": 5029,
      "anniversary": 5030,
      "hitting": 5031,
      "jury": 5032,
      "mere": 5033,
      "mud": 5034,
      "mask": 5035,
      "pad": 5036,
      "rif": 5037,
      "##rad": 5038,
      "##ox": 5039,
      "##dle": 5040,
      "##cing": 5041,
      "##zard": 5042,
      "##inating": 5043,
      "toward": 5044,
      "##tha": 5045,
      "reward": 5046,
      "shy": 5047,
      "lily": 5048,
      "##ooth": 5049,
      "##sty": 5050,
      "##stein": 5051,
      "atm": 5052,
      "##illing": 5053,
      "treasure": 5054,
      "spy": 5055,
      "##umber": 5056,
      "becomes": 5057,
      "##agn": 5058,
      "downtown": 5059,
      "joey": 5060,
      "maria": 5061,
      "writer": 5062,
      "friendship": 5063,
      "belief": 5064,
      "##ivid": 5065,
      "sla": 5066,
      "earn": 5067,
      "desire": 5068,
      "confession": 5069,
      "damned": 5070,
      "burst": 5071,
      "bullets": 5072,
      "closet": 5073,
      "fixed": 5074,
      "solution": 5075,
      "systems": 5076,
      "blowing": 5077,
      "tempor": 5078,
      "dawn": 5079,
      "booth": 5080,
      "karen": 5081,
      "blew": 5082,
      "emotional": 5083,
      "mixed": 5084,
      "vampire": 5085,
      "schedule": 5086,
      "literally": 5087,
      "multip": 5088,
      "nuclear": 5089,
      "arthur": 5090,
      "taylor": 5091,
      "ath": 5092,
      "gorge": 5093,
      "iv": 5094,
      "ni": 5095,
      "tend": 5096,
      "##mate": 5097,
      "##ja": 5098,
      "##isions": 5099,
      "lips": 5100,
      "candy": 5101,
      "sugar": 5102,
      "##ifying": 5103,
      "##ittee": 5104,
      "shoulder": 5105,
      "##bel": 5106,
      "thrown": 5107,
      "flor": 5108,
      "smith": 5109,
      "series": 5110,
      "comprom": 5111,
      "recomm": 5112,
      "useful": 5113,
      "infect": 5114,
      "signs": 5115,
      "grandmother": 5116,
      "facts": 5117,
      "hunter": 5118,
      "engage": 5119,
      "falls": 5120,
      "calc": 5121,
      "refer": 5122,
      "profile": 5123,
      "susan": 5124,
      "solve": 5125,
      "privacy": 5126,
      "foolish": 5127,
      "device": 5128,
      "package": 5129,
      "golden": 5130,
      "smells": 5131,
      "revolution": 5132,
      "negative": 5133,
      "directly": 5134,
      "oliver": 5135,
      "method": 5136,
      "junior": 5137,
      "influ": 5138,
      "pulse": 5139,
      "guarantee": 5140,
      "bible": 5141,
      "dave": 5142,
      "fasc": 5143,
      "gree": 5144,
      "hank": 5145,
      "porn": 5146,
      "vent": 5147,
      "vice": 5148,
      "##away": 5149,
      "##ien": 5150,
      "##uk": 5151,
      "##zing": 5152,
      "##isc": 5153,
      "ital": 5154,
      "##ays": 5155,
      "##arily": 5156,
      "##icing": 5157,
      "##icles": 5158,
      "##ications": 5159,
      "nope": 5160,
      "##cho": 5161,
      "##road": 5162,
      "alert": 5163,
      "##ella": 5164,
      "exit": 5165,
      "##ability": 5166,
      "grass": 5167,
      "crown": 5168,
      "league": 5169,
      "leo": 5170,
      "actor": 5171,
      "bug": 5172,
      "handed": 5173,
      "adop": 5174,
      "asks": 5175,
      "emb": 5176,
      "mont": 5177,
      "monkey": 5178,
      "interrog": 5179,
      "attach": 5180,
      "guessing": 5181,
      "understanding": 5182,
      "pays": 5183,
      "eaten": 5184,
      "sentence": 5185,
      "leads": 5186,
      "transl": 5187,
      "destiny": 5188,
      "officially": 5189,
      "artist": 5190,
      "salt": 5191,
      "survived": 5192,
      "enjoying": 5193,
      "garbage": 5194,
      "division": 5195,
      "pushed": 5196,
      "##ervation": 5197,
      "receive": 5198,
      "international": 5199,
      "precise": 5200,
      "juice": 5201,
      "chuckles": 5202,
      "trauma": 5203,
      "newspaper": 5204,
      "excellent": 5205,
      "chicago": 5206,
      "environment": 5207,
      "unknown": 5208,
      "boun": 5209,
      "dial": 5210,
      "eve": 5211,
      "etern": 5212,
      "frog": 5213,
      "ja": 5214,
      "pit": 5215,
      "##pting": 5216,
      "##bon": 5217,
      "##enn": 5218,
      "##eted": 5219,
      "##usive": 5220,
      "shake": 5221,
      "stake": 5222,
      "##lyn": 5223,
      "alb": 5224,
      "alice": 5225,
      "##uled": 5226,
      "clar": 5227,
      "##athers": 5228,
      "workers": 5229,
      "role": 5230,
      "cru": 5231,
      "scot": 5232,
      "parties": 5233,
      "secure": 5234,
      "disp": 5235,
      "contain": 5236,
      "carefully": 5237,
      "foster": 5238,
      "parking": 5239,
      "courage": 5240,
      "##iano": 5241,
      "childhood": 5242,
      "hurting": 5243,
      "glor": 5244,
      "stands": 5245,
      "metal": 5246,
      "obl": 5247,
      "deput": 5248,
      "windows": 5249,
      "memor": 5250,
      "refr": 5251,
      "refuse": 5252,
      "refused": 5253,
      "wallet": 5254,
      "budd": 5255,
      "tracks": 5256,
      "doub": 5257,
      "maintain": 5258,
      "concent": 5259,
      "impression": 5260,
      "customers": 5261,
      "balance": 5262,
      "navy": 5263,
      "japanese": 5264,
      "##standing": 5265,
      "therapy": 5266,
      "congratulations": 5267,
      "gorgeous": 5268,
      "cub": 5269,
      "ded": 5270,
      "fab": 5271,
      "hay": 5272,
      "hoo": 5273,
      "nathan": 5274,
      "sink": 5275,
      "ven": 5276,
      "##lim": 5277,
      "##rated": 5278,
      "##bor": 5279,
      "##he": 5280,
      "##ona": 5281,
      "##omas": 5282,
      "goal": 5283,
      "##sem": 5284,
      "##sell": 5285,
      "stretch": 5286,
      "##imately": 5287,
      "abby": 5288,
      "chase": 5289,
      "sup": 5290,
      "##ieved": 5291,
      "boom": 5292,
      "blond": 5293,
      "helen": 5294,
      "joking": 5295,
      "carr": 5296,
      "removed": 5297,
      "buff": 5298,
      "flesh": 5299,
      "kinds": 5300,
      "bush": 5301,
      "committee": 5302,
      "charming": 5303,
      "##ibi": 5304,
      "##ibly": 5305,
      "reputation": 5306,
      "skull": 5307,
      "trusted": 5308,
      "##otte": 5309,
      "snake": 5310,
      "studio": 5311,
      "##apping": 5312,
      "##ification": 5313,
      "kingdom": 5314,
      "judgment": 5315,
      "cryst": 5316,
      "merc": 5317,
      "conditions": 5318,
      "loser": 5319,
      "misunder": 5320,
      "miserable": 5321,
      "sara": 5322,
      "technically": 5323,
      "impressive": 5324,
      "occur": 5325,
      "lucy": 5326,
      "audience": 5327,
      "symbol": 5328,
      "terrorist": 5329,
      "busted": 5330,
      "tradition": 5331,
      "determined": 5332,
      "warrior": 5333,
      "austral": 5334,
      "procedure": 5335,
      "coincidence": 5336,
      "explanation": 5337,
      "ax": 5338,
      "aim": 5339,
      "han": 5340,
      "hid": 5341,
      "naz": 5342,
      "pic": 5343,
      "pac": 5344,
      "ves": 5345,
      "ye": 5346,
      "##aud": 5347,
      "##mark": 5348,
      "##iat": 5349,
      "##uary": 5350,
      "##inting": 5351,
      "analy": 5352,
      "somethin": 5353,
      "##cked": 5354,
      "guilt": 5355,
      "spect": 5356,
      "##umn": 5357,
      "proph": 5358,
      "helpful": 5359,
      "##ipment": 5360,
      "##atherine": 5361,
      "respon": 5362,
      "assure": 5363,
      "contest": 5364,
      "surve": 5365,
      "sons": 5366,
      "minds": 5367,
      "humil": 5368,
      "individ": 5369,
      "fourth": 5370,
      "speaks": 5371,
      "patrol": 5372,
      "engaged": 5373,
      "##aker": 5374,
      "destr": 5375,
      "victory": 5376,
      "humanity": 5377,
      "publish": 5378,
      "lawyers": 5379,
      "succeed": 5380,
      "massive": 5381,
      "identity": 5382,
      "equipment": 5383,
      "competition": 5384,
      "mexico": 5385,
      "museum": 5386,
      "aven": 5387,
      "beam": 5388,
      "batt": 5389,
      "dent": 5390,
      "dated": 5391,
      "ls": 5392,
      "lap": 5393,
      "mam": 5394,
      "nasty": 5395,
      "os": 5396,
      "py": 5397,
      "rib": 5398,
      "tues": 5399,
      "vag": 5400,
      "wings": 5401,
      "##tin": 5402,
      "##ping": 5403,
      "anal": 5404,
      "##itable": 5405,
      "wives": 5406,
      "myster": 5407,
      "##tery": 5408,
      "chip": 5409,
      "chew": 5410,
      "##illance": 5411,
      "reaction": 5412,
      "worm": 5413,
      "spit": 5414,
      "pros": 5415,
      "##ifice": 5416,
      "grav": 5417,
      "severe": 5418,
      "joint": 5419,
      "qual": 5420,
      "carter": 5421,
      "carried": 5422,
      "mighty": 5423,
      "ending": 5424,
      "morgan": 5425,
      "financ": 5426,
      "barry": 5427,
      "hearts": 5428,
      "media": 5429,
      "arranged": 5430,
      "subst": 5431,
      "advance": 5432,
      "sample": 5433,
      "imagination": 5434,
      "purse": 5435,
      "closing": 5436,
      "ringing": 5437,
      "failure": 5438,
      "selfish": 5439,
      "grabbed": 5440,
      "witnesses": 5441,
      "facility": 5442,
      "jerk": 5443,
      "neighbour": 5444,
      "identify": 5445,
      "performance": 5446,
      "attractive": 5447,
      "pilot": 5448,
      "crisis": 5449,
      "charlotte": 5450,
      "response": 5451,
      "tuesday": 5452,
      "aug": 5453,
      "core": 5454,
      "dw": 5455,
      "dip": 5456,
      "furn": 5457,
      "hood": 5458,
      "nik": 5459,
      "rape": 5460,
      "tears": 5461,
      "##lon": 5462,
      "##mes": 5463,
      "##bie": 5464,
      "##yard": 5465,
      "##uable": 5466,
      "##vable": 5467,
      "youth": 5468,
      "theater": 5469,
      "andrew": 5470,
      "##aring": 5471,
      "##itory": 5472,
      "forth": 5473,
      "##sequ": 5474,
      "wasted": 5475,
      "##ales": 5476,
      "##iring": 5477,
      "ability": 5478,
      "fract": 5479,
      "background": 5480,
      "clue": 5481,
      "##ardon": 5482,
      "sew": 5483,
      "twins": 5484,
      "joined": 5485,
      "##berg": 5486,
      "##udes": 5487,
      "flower": 5488,
      "warned": 5489,
      "slave": 5490,
      "##annah": 5491,
      "wins": 5492,
      "instinct": 5493,
      "bury": 5494,
      "grey": 5495,
      "kissing": 5496,
      "tracking": 5497,
      "mercy": 5498,
      "conduct": 5499,
      "properly": 5500,
      "jumped": 5501,
      "strip": 5502,
      "marrying": 5503,
      "deny": 5504,
      "dragged": 5505,
      "torn": 5506,
      "extraord": 5507,
      "estate": 5508,
      "wounds": 5509,
      "effects": 5510,
      "designed": 5511,
      "ignore": 5512,
      "degrees": 5513,
      "status": 5514,
      "explosion": 5515,
      "sports": 5516,
      "africa": 5517,
      "version": 5518,
      "university": 5519,
      "valley": 5520,
      "surveillance": 5521,
      "aid": 5522,
      "cass": 5523,
      "cav": 5524,
      "dor": 5525,
      "gifts": 5526,
      "jung": 5527,
      "mand": 5528,
      "miam": 5529,
      "nate": 5530,
      "pow": 5531,
      "pour": 5532,
      "sides": 5533,
      "tuck": 5534,
      "tub": 5535,
      "vince": 5536,
      "wand": 5537,
      "##uing": 5538,
      "##sa": 5539,
      "##ji": 5540,
      "##eds": 5541,
      "rein": 5542,
      "##char": 5543,
      "frag": 5544,
      "##adem": 5545,
      "##oph": 5546,
      "lover": 5547,
      "##abe": 5548,
      "prize": 5549,
      "##osis": 5550,
      "cliff": 5551,
      "boots": 5552,
      "##rier": 5553,
      "cole": 5554,
      "coord": 5555,
      "beloved": 5556,
      "poem": 5557,
      "resour": 5558,
      "##raft": 5559,
      "accused": 5560,
      "standard": 5561,
      "barbar": 5562,
      "hopefully": 5563,
      "cleared": 5564,
      "conspir": 5565,
      "conscious": 5566,
      "breaks": 5567,
      "couch": 5568,
      "messed": 5569,
      "messages": 5570,
      "possession": 5571,
      "##otted": 5572,
      "##ocr": 5573,
      "freeze": 5574,
      "legend": 5575,
      "returning": 5576,
      "burns": 5577,
      "covering": 5578,
      "laund": 5579,
      "admin": 5580,
      "satell": 5581,
      "servant": 5582,
      "songs": 5583,
      "steven": 5584,
      "bored": 5585,
      "investigate": 5586,
      "costs": 5587,
      "casual": 5588,
      "delivered": 5589,
      "occup": 5590,
      "louis": 5591,
      "germany": 5592,
      "routine": 5593,
      "divorced": 5594,
      "beneath": 5595,
      "##ribly": 5596,
      "suspicious": 5597,
      "random": 5598,
      "encoun": 5599,
      "current": 5600,
      "defeat": 5601,
      "channel": 5602,
      "individual": 5603,
      "miami": 5604,
      ".?": 5605,
      "econ": 5606,
      "fest": 5607,
      "jones": 5608,
      "las": 5609,
      "lam": 5610,
      "measure": 5611,
      "rust": 5612,
      "rope": 5613,
      "##mp": 5614,
      "##ties": 5615,
      "##rea": 5616,
      "##ril": 5617,
      "##ba": 5618,
      "##iber": 5619,
      "##wr": 5620,
      "thick": 5621,
      "##edy": 5622,
      "##owing": 5623,
      "##omfort": 5624,
      "beck": 5625,
      "##idents": 5626,
      "stairs": 5627,
      "knight": 5628,
      "##ched": 5629,
      "##tered": 5630,
      "##ador": 5631,
      "tri": 5632,
      "trib": 5633,
      "clown": 5634,
      "##icks": 5635,
      "##ously": 5636,
      "blo": 5637,
      "##play": 5638,
      "adjust": 5639,
      "sweep": 5640,
      "disag": 5641,
      "bitter": 5642,
      "charged": 5643,
      "glory": 5644,
      "reporter": 5645,
      "signific": 5646,
      "figures": 5647,
      "harv": 5648,
      "collea": 5649,
      "touching": 5650,
      "##teen": 5651,
      "greet": 5652,
      "purs": 5653,
      "announce": 5654,
      "##onym": 5655,
      "crossed": 5656,
      "germans": 5657,
      "entertain": 5658,
      "produc": 5659,
      "modern": 5660,
      "violent": 5661,
      "impressed": 5662,
      "bowl": 5663,
      "digging": 5664,
      "panic": 5665,
      "urg": 5666,
      "##force": 5667,
      "sacrifice": 5668,
      "strangers": 5669,
      "inspector": 5670,
      "citizens": 5671,
      "education": 5672,
      "elevator": 5673,
      "multiple": 5674,
      "cere": 5675,
      "cel": 5676,
      "dirt": 5677,
      "len": 5678,
      "mas": 5679,
      "##bl": 5680,
      "thomas": 5681,
      "anonym": 5682,
      "##itute": 5683,
      "doom": 5684,
      "reject": 5685,
      "shown": 5686,
      "wasting": 5687,
      "noble": 5688,
      "##cha": 5689,
      "abo": 5690,
      "##acked": 5691,
      "anytime": 5692,
      "alibi": 5693,
      "orange": 5694,
      "timing": 5695,
      "comr": 5696,
      "ages": 5697,
      "boot": 5698,
      "unex": 5699,
      "blown": 5700,
      "##bey": 5701,
      "belt": 5702,
      "carp": 5703,
      "poet": 5704,
      "academ": 5705,
      "string": 5706,
      "struct": 5707,
      "homework": 5708,
      "smooth": 5709,
      "dism": 5710,
      "perman": 5711,
      "##epend": 5712,
      "minor": 5713,
      "plays": 5714,
      "applic": 5715,
      "slipped": 5716,
      "##shot": 5717,
      "dece": 5718,
      "retreat": 5719,
      "india": 5720,
      "delicious": 5721,
      "dropping": 5722,
      "jackie": 5723,
      "curse": 5724,
      "wednes": 5725,
      "catching": 5726,
      "reported": 5727,
      "robot": 5728,
      "robbed": 5729,
      "offering": 5730,
      "counting": 5731,
      "counsel": 5732,
      "privile": 5733,
      "survival": 5734,
      "relationships": 5735,
      "rolling": 5736,
      "faced": 5737,
      "delivery": 5738,
      "blocks": 5739,
      "sharing": 5740,
      "kidnapped": 5741,
      "captured": 5742,
      "micro": 5743,
      "embarrassed": 5744,
      "unable": 5745,
      "liberty": 5746,
      "tube": 5747,
      "argument": 5748,
      "##prints": 5749,
      "magazine": 5750,
      "iraq": 5751,
      "wednesday": 5752,
      "bun": 5753,
      "cage": 5754,
      "dere": 5755,
      "daw": 5756,
      "gus": 5757,
      "gord": 5758,
      "jin": 5759,
      "jord": 5760,
      "kay": 5761,
      "kicking": 5762,
      "pir": 5763,
      "rus": 5764,
      "tiss": 5765,
      "ugh": 5766,
      "vinc": 5767,
      "##mon": 5768,
      "##mail": 5769,
      "##tes": 5770,
      "##een": 5771,
      "thou": 5772,
      "##asm": 5773,
      "##itar": 5774,
      "##imony": 5775,
      "lion": 5776,
      "novel": 5777,
      "placed": 5778,
      "alan": 5779,
      "loan": 5780,
      "manip": 5781,
      "argue": 5782,
      "brut": 5783,
      "clo": 5784,
      "##ifer": 5785,
      "##agger": 5786,
      "cruel": 5787,
      "active": 5788,
      "remote": 5789,
      "underne": 5790,
      "strate": 5791,
      "struck": 5792,
      "flip": 5793,
      "##iley": 5794,
      "phones": 5795,
      "##ivia": 5796,
      "parad": 5797,
      "repub": 5798,
      "policy": 5799,
      "bars": 5800,
      "retire": 5801,
      "patience": 5802,
      "legit": 5803,
      "visited": 5804,
      "cheating": 5805,
      "bills": 5806,
      "lands": 5807,
      "worthy": 5808,
      "fairy": 5809,
      "boxes": 5810,
      "entirely": 5811,
      "fishing": 5812,
      "annie": 5813,
      "approp": 5814,
      "bombs": 5815,
      "levels": 5816,
      "deserves": 5817,
      "sympath": 5818,
      "injury": 5819,
      "flew": 5820,
      "kenny": 5821,
      "scientists": 5822,
      "gradu": 5823,
      "narrow": 5824,
      "corru": 5825,
      "punishment": 5826,
      "hammer": 5827,
      "entrance": 5828,
      "underneath": 5829,
      "hes": 5830,
      "lin": 5831,
      "virt": 5832,
      "zoo": 5833,
      "##rison": 5834,
      "##rup": 5835,
      "##iable": 5836,
      "##nn": 5837,
      "##ko": 5838,
      "##win": 5839,
      "##inals": 5840,
      "toy": 5841,
      "anno": 5842,
      "isol": 5843,
      "stew": 5844,
      "##imum": 5845,
      "fraud": 5846,
      "altern": 5847,
      "uses": 5848,
      "##uls": 5849,
      "##igning": 5850,
      "congress": 5851,
      "helic": 5852,
      "scri": 5853,
      "marine": 5854,
      "cared": 5855,
      "imper": 5856,
      "afterwards": 5857,
      "believing": 5858,
      "realise": 5859,
      "mons": 5860,
      "apple": 5861,
      "recon": 5862,
      "parent": 5863,
      "schem": 5864,
      "function": 5865,
      "decisions": 5866,
      "evac": 5867,
      "skip": 5868,
      "##ception": 5869,
      "independ": 5870,
      "collection": 5871,
      "johnson": 5872,
      "cert": 5873,
      "greg": 5874,
      "fella": 5875,
      "locker": 5876,
      "err": 5877,
      "##ysis": 5878,
      "valuable": 5879,
      "prisoner": 5880,
      "escort": 5881,
      "histor": 5882,
      "##hold": 5883,
      "silence": 5884,
      "practically": 5885,
      "production": 5886,
      "apology": 5887,
      "feeding": 5888,
      "lucas": 5889,
      "yelling": 5890,
      "pathetic": 5891,
      "emotions": 5892,
      "politics": 5893,
      "coward": 5894,
      "dylan": 5895,
      "embarrassing": 5896,
      "latest": 5897,
      "frozen": 5898,
      "religion": 5899,
      "frightened": 5900,
      "prevent": 5901,
      "thirsty": 5902,
      "clinic": 5903,
      "texas": 5904,
      "deputy": 5905,
      "extraordinary": 5906,
      "aboard": 5907,
      "republic": 5908,
      "annoying": 5909,
      "ak": 5910,
      "egy": 5911,
      "elder": 5912,
      "fence": 5913,
      "fulf": 5914,
      "gear": 5915,
      "gri": 5916,
      "lf": 5917,
      "mig": 5918,
      "mister": 5919,
      "sins": 5920,
      "tent": 5921,
      "tro": 5922,
      "vault": 5923,
      "##pass": 5924,
      "##ris": 5925,
      "##fl": 5926,
      "##jo": 5927,
      "thurs": 5928,
      "whist": 5929,
      "##east": 5930,
      "##oting": 5931,
      "heh": 5932,
      "##itter": 5933,
      "##itution": 5934,
      "stro": 5935,
      "stun": 5936,
      "##ching": 5937,
      "frame": 5938,
      "chi": 5939,
      "upd": 5940,
      "trunk": 5941,
      "troops": 5942,
      "guide": 5943,
      "bru": 5944,
      "unp": 5945,
      "unbe": 5946,
      "unique": 5947,
      "blade": 5948,
      "grid": 5949,
      "intention": 5950,
      "remark": 5951,
      "buzz": 5952,
      "##izes": 5953,
      "disaster": 5954,
      "##ivity": 5955,
      "insult": 5956,
      "deck": 5957,
      "award": 5958,
      "confident": 5959,
      "confidence": 5960,
      "complain": 5961,
      "patrick": 5962,
      "leaders": 5963,
      "transm": 5964,
      "images": 5965,
      "trained": 5966,
      "##osphere": 5967,
      "centre": 5968,
      "squee": 5969,
      "jesse": 5970,
      "pushing": 5971,
      "investigating": 5972,
      "banks": 5973,
      "washed": 5974,
      "entered": 5975,
      "enterpr": 5976,
      "empire": 5977,
      "beard": 5978,
      "palace": 5979,
      "holes": 5980,
      "limit": 5981,
      "hostage": 5982,
      "choices": 5983,
      "teddy": 5984,
      "tower": 5985,
      "fifth": 5986,
      "critic": 5987,
      "despite": 5988,
      "western": 5989,
      "exercise": 5990,
      "italian": 5991,
      "vessel": 5992,
      "august": 5993,
      "tissue": 5994,
      "egypt": 5995,
      "ale": 5996,
      "diet": 5997,
      "kh": 5998,
      "lun": 5999
    }
  }
}