{
  "version": "1.0",
  "truncation": null,
  "padding": null,
  "added_tokens": [
    {
      "id": 0,
      "content": "[PAD]",
      "single_word": false,
      "lstrip": false,
      "rstrip": false,
      "normalized": false,
      "special": true
    },
    {
      "id": 1,
      "content": "[UNK]",
      "single_word": false,
      "lstrip": false,
      "rstrip": false,
      "normalized": false,
      "special": true
    },
    {
      "id": 2,
      "content": "[BOS]",
      "single_word": false,
      "lstrip": false,
      "rstrip": false,
      "normalized": false,
      "special": true
    },
    {
      "id": 3,
      "content": "[EOS]",
      "single_word": false,
      "lstrip": false,
      "rstrip": false,
      "normalized": false,
      "special": true
    }
  ],
  "normalizer": {
    "type": "Lowercase"
  },
  "pre_tokenizer": {
    "type": "Sequence",
    "pretokenizers": [
      {
        "type": "Whitespace"
      },
      {
        "type": "Digits",
        "individual_digits": true
      }
    ]
  },
  "post_processor": {
    "type": "TemplateProcessing",
    "single": [
      {
        "SpecialToken": {
          "id": "[BOS]",
          "type_id": 0
        }
      },
      {
        "Sequence": {
          "id": "A",
          "type_id": 0
        }
      },
      {
        "SpecialToken": {
          "id": "[EOS]",
          "type_id": 0
        }
      }
    ],
    "pair": [
      {
        "Sequence": {
          "id": "A",
          "type_id": 0
        }
      },
      {
        "Sequence": {
          "id": "B",
          "type_id": 1
        }
      }
    ],
    "special_tokens": {
      "[BOS]": {
        "id": "[BOS]",
        "ids": [
          2
        ],
        "tokens": [
          "[BOS]"
        ]
      },
      "[EOS]": {
        "id": "[EOS]",
        "ids": [
          3
        ],
        "tokens": [
          "[EOS]"
        ]
      }
    }
  },
  "decoder": null,
  "model": {
    "type": "BPE",
    "dropout": null,
    "unk_token": "[UNK]",
    "continuing_subword_prefix": null,
    "end_of_word_suffix": null,
    "fuse_unk": false,
    "byte_fallback": false,
    "ignore_merges": false,
    "vocab": {
      "[PAD]": 0,
      "[UNK]": 1,
      "[BOS]": 2,
      "[EOS]": 3,
      "!": 4,
      "\"": 5,
      "#": 6,
      "$": 7,
      "%": 8,
      "'": 9,
      "(": 10,
      ")": 11,
      "*": 12,
      "+": 13,
      ",": 14,
      "-": 15,
      ".": 16,
      "/": 17,
      "0": 18,
      "1": 19,
      "2": 20,
      "3": 21,
      "4": 22,
      "5": 23,
      "6": 24,
      "7": 25,
      "8": 26,
      "9": 27,
      ":": 28,
      ";": 29,
      "=": 30,
      "?": 31,
      "@": 32,
      "[": 33,
      "\\": 34,
      "]": 35,
      "^": 36,
      "_": 37,
      "`": 38,
      "a": 39,
      "b": 40,
      "c": 41,
      "d": 42,
      "e": 43,
      "f": 44,
      "g": 45,
      "h": 46,
      "i": 47,
      "j": 48,
      "k": 49,
      "l": 50,
      "m": 51,
      "n": 52,
      "o": 53,
      "p": 54,
      "q": 55,
      "r": 56,
      "s": 57,
      "t": 58,
      "u": 59,
      "v": 60,
      "w": 61,
      "x": 62,
      "y": 63,
      "z": 64,
      "{": 65,
      "}": 66,
      "~": 67,
      "": 68,
      "": 69,
      "": 70,
      "": 71,
      "": 72,
      "": 73,
      "": 74,
      "¡": 75,
      "¢": 76,
      "£": 77,
      "¤": 78,
      "§": 79,
      "©": 80,
      "ª": 81,
      "¬": 82,
      "­": 83,
      "¯": 84,
      "°": 85,
      "±": 86,
      "³": 87,
      "´": 88,
      "¶": 89,
      "½": 90,
      "¿": 91,
      "à": 92,
      "á": 93,
      "â": 94,
      "ã": 95,
      "ä": 96,
      "å": 97,
      "æ": 98,
      "ç": 99,
      "è": 100,
      "é": 101,
      "ê": 102,
      "ë": 103,
      "ì": 104,
      "í": 105,
      "ï": 106,
      "ð": 107,
      "ñ": 108,
      "ò": 109,
      "ó": 110,
      "ô": 111,
      "õ": 112,
      "ö": 113,
      "ø": 114,
      "ú": 115,
      "ü": 116,
      "ý": 117,
      "þ": 118,
      "ă": 119,
      "ć": 120,
      "ē": 121,
      "ı": 122,
      "œ": 123,
      "ş": 124,
      "š": 125,
      "ż": 126,
      "ư": 127,
      "˜": 128,
      "̇": 129,
      "ί": 130,
      "β": 131,
      "η": 132,
      "ι": 133,
      "μ": 134,
      "ν": 135,
      "ο": 136,
      "ρ": 137,
      "τ": 138,
      "υ": 139,
      "с": 140,
      "у": 141,
      "‒": 142,
      "–": 143,
      "—": 144,
      "‚": 145,
      "‭": 146,
      "′": 147,
      "″": 148,
      "€": 149,
      "™": 150,
      "─": 151,
      "│": 152,
      "●": 153,
      "♪": 154,
      "♫": 155,
      "檛": 156,
      "鈥": 157,
      "ﬁ": 158,
      "ﬂ": 159,
      "th": 160,
      "ou": 161,
      "in": 162,
      "re": 163,
      "an": 164,
      "the": 165,
      "you": 166,
      "on": 167,
      "at": 168,
      "to": 169,
      "er": 170,
      "ing": 171,
      "ll": 172,
      "me": 173,
      "is": 174,
      "it": 175,
      "he": 176,
      "or": 177,
      "no": 178,
      "st": 179,
      "ve": 180,
      "se": 181,
      "le": 182,
      "we": 183,
      "and": 184,
      "ar": 185,
      "..": 186,
      "be": 187,
      "as": 188,
      "ay": 189,
      "wh": 190,
      "of": 191,
      "that": 192,
      "ed": 193,
      "en": 194,
      "ha": 195,
      "go": 196,
      "do": 197,
      "gh": 198,
      "al": 199,
      "all": 200,
      "so": 201,
      "ke": 202,
      "id": 203,
      "now": 204,
      "li": 205,
      "ro": 206,
      "ac": 207,
      "ri": 208,
      "ld": 209,
      "wi": 210,
      "es": 211,
      "ght": 212,
      "for": 213,
      "what": 214,
      "ho": 215,
      "lo": 216,
      "ut": 217,
      "ver": 218,
      "out": 219,
      "ok": 220,
      "...": 221,
      "ge": 222,
      "this": 223,
      "co": 224,
      "are": 225,
      "my": 226,
      "one": 227,
      "ic": 228,
      "ad": 229,
      "know": 230,
      "have": 231,
      "was": 232,
      "your": 233,
      "ne": 234,
      "ch": 235,
      "not": 236,
      "ab": 237,
      "ust": 238,
      "don": 239,
      "thing": 240,
      "ti": 241,
      "here": 242,
      "with": 243,
      "ly": 244,
      "ould": 245,
      "can": 246,
      "ry": 247,
      "un": 248,
      "ir": 249,
      "ant": 250,
      "mo": 251,
      "if": 252,
      "but": 253,
      "im": 254,
      "just": 255,
      "some": 256,
      "up": 257,
      "us": 258,
      "get": 259,
      "te": 260,
      "am": 261,
      "fe": 262,
      "ther": 263,
      "de": 264,
      "od": 265,
      "right": 266,
      "they": 267,
      "pe": 268,
      "ce": 269,
      "there": 270,
      "she": 271,
      "ake": 272,
      "like": 273,
      "ter": 274,
      "ion": 275,
      "nt": 276,
      "na": 277,
      "ye": 278,
      "ur": 279,
      "any": 280,
      "want": 281,
      "ink": 282,
      "okay": 283,
      "ca": 284,
      "how": 285,
      "did": 286,
      "her": 287,
      "about": 288,
      "po": 289,
      "ck": 290,
      "sh": 291,
      "ack": 292,
      "our": 293,
      "wor": 294,
      "him": 295,
      "think": 296,
      "way": 297,
      "very": 298,
      "got": 299,
      "ple": 300,
      "sa": 301,
      "ill": 302,
      "ain": 303,
      "use": 304,
      "man": 305,
      "see": 306,
      "sor": 307,
      "ind": 308,
      "well": 309,
      "ally": 310,
      "gu": 311,
      "tr": 312,
      "who": 313,
      "su": 314,
      "bo": 315,
      "ag": 316,
      "pl": 317,
      "look": 318,
      "con": 319,
      "come": 320,
      "his": 321,
      "time": 322,
      "pp": 323,
      "will": 324,
      "sorry": 325,
      "rom": 326,
      "art": 327,
      "ight": 328,
      "wn": 329,
      "nd": 330,
      "ive": 331,
      "whe": 332,
      "ate": 333,
      "would": 334,
      "let": 335,
      "from": 336,
      "ast": 337,
      "back": 338,
      "ex": 339,
      "com": 340,
      "ah": 341,
      "when": 342,
      "say": 343,
      "end": 344,
      "king": 345,
      "why": 346,
      "ard": 347,
      "good": 348,
      "oh": 349,
      "day": 350,
      "per": 351,
      "eve": 352,
      "could": 353,
      "ss": 354,
      "going": 355,
      "fo": 356,
      "than": 357,
      "need": 358,
      "wo": 359,
      "gon": 360,
      "were": 361,
      "ound": 362,
      "gonna": 363,
      "every": 364,
      "take": 365,
      "ra": 366,
      "tell": 367,
      "pro": 368,
      "them": 369,
      "ong": 370,
      "el": 371,
      "ation": 372,
      "fu": 373,
      "had": 374,
      "ine": 375,
      "off": 376,
      "ie": 377,
      "been": 378,
      "ide": 379,
      "pre": 380,
      "where": 381,
      "ent": 382,
      "ig": 383,
      "il": 384,
      "yeah": 385,
      "ct": 386,
      "qu": 387,
      "der": 388,
      "tal": 389,
      "cause": 390,
      "then": 391,
      "um": 392,
      "make": 393,
      "ep": 394,
      "ist": 395,
      "red": 396,
      "by": 397,
      "more": 398,
      "lf": 399,
      "act": 400,
      "something": 401,
      "ace": 402,
      "other": 403,
      "sc": 404,
      "ough": 405,
      "itt": 406,
      "sto": 407,
      "ess": 408,
      "didn": 409,
      "ice": 410,
      "has": 411,
      "really": 412,
      "ble": 413,
      "mean": 414,
      "sp": 415,
      "af": 416,
      "happ": 417,
      "may": 418,
      "ment": 419,
      "fa": 420,
      "call": 421,
      "over": 422,
      "guy": 423,
      "br": 424,
      "ta": 425,
      "should": 426,
      "ul": 427,
      "ase": 428,
      "ber": 429,
      "down": 430,
      "ous": 431,
      "doing": 432,
      "too": 433,
      "et": 434,
      "work": 435,
      "new": 436,
      "la": 437,
      "never": 438,
      "love": 439,
      "does": 440,
      "because": 441,
      "give": 442,
      "ople": 443,
      "ving": 444,
      "people": 445,
      "hel": 446,
      "ought": 447,
      "only": 448,
      "ave": 449,
      "ody": 450,
      "che": 451,
      "ittle": 452,
      "son": 453,
      "little": 454,
      "kill": 455,
      "thank": 456,
      "help": 457,
      "ers": 458,
      "gr": 459,
      "ma": 460,
      "tion": 461,
      "ars": 462,
      "ick": 463,
      "gre": 464,
      "bu": 465,
      "ity": 466,
      "jo": 467,
      "yes": 468,
      "body": 469,
      "ty": 470,
      "self": 471,
      "ass": 472,
      "said": 473,
      "ting": 474,
      "fore": 475,
      "even": 476,
      "mu": 477,
      "ol": 478,
      "mar": 479,
      "pr": 480,
      "find": 481,
      "ree": 482,
      "riend": 483,
      "happen": 484,
      "put": 485,
      "two": 486,
      "read": 487,
      "ure": 488,
      "fir": 489,
      "ang": 490,
      "ile": 491,
      "talk": 492,
      "bet": 493,
      "uh": 494,
      "won": 495,
      "ever": 496,
      "again": 497,
      "di": 498,
      "mis": 499,
      "part": 500,
      "please": 501,
      "mor": 502,
      "life": 503,
      "dr": 504,
      "anything": 505,
      "spe": 506,
      "ite": 507,
      "friend": 508,
      "much": 509,
      "wa": 510,
      "into": 511,
      "these": 512,
      "try": 513,
      "fuck": 514,
      "urn": 515,
      "long": 516,
      "ak": 517,
      "sed": 518,
      "sho": 519,
      "ose": 520,
      "night": 521,
      "sure": 522,
      "first": 523,
      "feel": 524,
      "hey": 525,
      "fi": 526,
      "thought": 527,
      "after": 528,
      "able": 529,
      "oney": 530,
      "gir": 531,
      "before": 532,
      "min": 533,
      "ade": 534,
      "ci": 535,
      "ish": 536,
      "men": 537,
      "lu": 538,
      "still": 539,
      "cou": 540,
      "maybe": 541,
      "car": 542,
      "ach": 543,
      "mon": 544,
      "ts": 545,
      "their": 546,
      "keep": 547,
      "pa": 548,
      "under": 549,
      "om": 550,
      "mr": 551,
      "wait": 552,
      "ning": 553,
      "ance": 554,
      "nothing": 555,
      "last": 556,
      "bro": 557,
      "em": 558,
      "ph": 559,
      "beli": 560,
      "hand": 561,
      "everything": 562,
      "tor": 563,
      "ask": 564,
      "bab": 565,
      "side": 566,
      "things": 567,
      "god": 568,
      "stand": 569,
      "por": 570,
      "name": 571,
      "row": 572,
      "those": 573,
      "head": 574,
      "cle": 575,
      "girl": 576,
      "pt": 577,
      "ies": 578,
      "must": 579,
      "dis": 580,
      "ps": 581,
      "turn": 582,
      "age": 583,
      "wr": 584,
      "believe": 585,
      "ser": 586,
      "rest": 587,
      "home": 588,
      "kid": 589,
      "told": 590,
      "start": 591,
      "ways": 592,
      "away": 593,
      "--": 594,
      "old": 595,
      "ans": 596,
      "wat": 597,
      "tru": 598,
      "place": 599,
      "years": 600,
      "live": 601,
      "ready": 602,
      ".\"": 603,
      "doesn": 604,
      "ap": 605,
      "sup": 606,
      "real": 607,
      "ouse": 608,
      "kind": 609,
      "boy": 610,
      "est": 611,
      "leave": 612,
      "guys": 613,
      "around": 614,
      "clo": 615,
      "great": 616,
      "ru": 617,
      "lot": 618,
      "mat": 619,
      "mber": 620,
      "stu": 621,
      "rough": 622,
      "int": 623,
      "hi": 624,
      "big": 625,
      "father": 626,
      "bit": 627,
      "cre": 628,
      "house": 629,
      "cor": 630,
      "ft": 631,
      "always": 632,
      "pen": 633,
      "ild": 634,
      "ise": 635,
      "stay": 636,
      "sha": 637,
      "someone": 638,
      "tri": 639,
      "most": 640,
      "fr": 641,
      "ms": 642,
      "au": 643,
      "iz": 644,
      "better": 645,
      "ton": 646,
      "wee": 647,
      "miss": 648,
      "reme": 649,
      "ated": 650,
      "care": 651,
      "made": 652,
      "through": 653,
      "blo": 654,
      "show": 655,
      "room": 656,
      "stop": 657,
      "play": 658,
      "dad": 659,
      "own": 660,
      "might": 661,
      "run": 662,
      "ich": 663,
      "coming": 664,
      "ually": 665,
      "dy": 666,
      "ff": 667,
      "bre": 668,
      "isn": 669,
      "ily": 670,
      "came": 671,
      "du": 672,
      "wanted": 673,
      "money": 674,
      "ner": 675,
      "hell": 676,
      "ange": 677,
      "being": 678,
      "which": 679,
      "shit": 680,
      "bad": 681,
      "mother": 682,
      "fam": 683,
      "move": 684,
      "ren": 685,
      "less": 686,
      "bl": 687,
      "done": 688,
      "med": 689,
      "ath": 690,
      "wer": 691,
      "world": 692,
      "cl": 693,
      "three": 694,
      "fin": 695,
      "list": 696,
      "vi": 697,
      "si": 698,
      "sit": 699,
      "plan": 700,
      "fun": 701,
      "found": 702,
      "talking": 703,
      "sur": 704,
      "xt": 705,
      "looking": 706,
      "port": 707,
      "nice": 708,
      "ful": 709,
      "another": 710,
      "bus": 711,
      "remember": 712,
      "cour": 713,
      "sen": 714,
      "hear": 715,
      "ary": 716,
      "else": 717,
      "ign": 718,
      "left": 719,
      "les": 720,
      "pret": 721,
      "ot": 722,
      "ip": 723,
      "meet": 724,
      "att": 725,
      "used": 726,
      "trying": 727,
      "mind": 728,
      "war": 729,
      "cho": 730,
      "happened": 731,
      "ence": 732,
      "enough": 733,
      "ince": 734,
      "par": 735,
      "cont": 736,
      "job": 737,
      "dre": 738,
      "went": 739,
      "set": 740,
      "same": 741,
      "wasn": 742,
      "next": 743,
      "week": 744,
      "getting": 745,
      "je": 746,
      "ow": 747,
      "saw": 748,
      "ger": 749,
      "today": 750,
      "fine": 751,
      "pu": 752,
      "minut": 753,
      "lad": 754,
      "anna": 755,
      "mm": 756,
      "sm": 757,
      "count": 758,
      "str": 759,
      "hard": 760,
      "dead": 761,
      "lat": 762,
      "ny": 763,
      "ction": 764,
      "hold": 765,
      "actually": 766,
      "sid": 767,
      "des": 768,
      "wed": 769,
      "win": 770,
      "wrong": 771,
      "ju": 772,
      "mom": 773,
      "brother": 774,
      "wal": 775,
      "family": 776,
      "times": 777,
      "its": 778,
      "char": 779,
      "cut": 780,
      "ating": 781,
      "light": 782,
      "cer": 783,
      "ear": 784,
      "cond": 785,
      "person": 786,
      "without": 787,
      "baby": 788,
      "ago": 789,
      "cha": 790,
      "wouldn": 791,
      "child": 792,
      "listen": 793,
      "ste": 794,
      "woman": 795,
      "many": 796,
      "pri": 797,
      "ga": 798,
      "sing": 799,
      "whole": 800,
      "word": 801,
      "fucking": 802,
      "toge": 803,
      "together": 804,
      "best": 805,
      "yourself": 806,
      "bar": 807,
      "guess": 808,
      "ses": 809,
      "bring": 810,
      "dif": 811,
      "ten": 812,
      "pretty": 813,
      "while": 814,
      "hur": 815,
      "understand": 816,
      "open": 817,
      "year": 818,
      "thanks": 819,
      "hour": 820,
      "ank": 821,
      "sle": 822,
      "few": 823,
      "ding": 824,
      "scho": 825,
      "app": 826,
      "knew": 827,
      "wife": 828,
      "heard": 829,
      "land": 830,
      "sir": 831,
      "cr": 832,
      "since": 833,
      "face": 834,
      "watch": 835,
      "cra": 836,
      "took": 837,
      "comp": 838,
      "saying": 839,
      "wanna": 840,
      "quest": 841,
      "sent": 842,
      "killed": 843,
      "once": 844,
      "ster": 845,
      "ions": 846,
      "ious": 847,
      "school": 848,
      "far": 849,
      "seen": 850,
      "hu": 851,
      "bed": 852,
      "ried": 853,
      "ctor": 854,
      "ical": 855,
      "dam": 856,
      "suppo": 857,
      "cy": 858,
      "check": 859,
      "hed": 860,
      "already": 861,
      "vis": 862,
      "idea": 863,
      "gen": 864,
      "ves": 865,
      "bor": 866,
      "dri": 867,
      "nor": 868,
      "deal": 869,
      "called": 870,
      "days": 871,
      "second": 872,
      "alone": 873,
      "point": 874,
      "proble": 875,
      "aut": 876,
      "sy": 877,
      "case": 878,
      "ward": 879,
      "ia": 880,
      "late": 881,
      "pay": 882,
      "form": 883,
      "haven": 884,
      "fight": 885,
      "couldn": 886,
      "ason": 887,
      "rent": 888,
      "ved": 889,
      "having": 890,
      "til": 891,
      "friends": 892,
      "iness": 893,
      "such": 894,
      "ken": 895,
      "ult": 896,
      "anyone": 897,
      "comm": 898,
      "mes": 899,
      "door": 900,
      "hun": 901,
      "ces": 902,
      "cur": 903,
      "lor": 904,
      "morning": 905,
      "soon": 906,
      "course": 907,
      "ash": 908,
      "pped": 909,
      "air": 910,
      "beaut": 911,
      "everyone": 912,
      "high": 913,
      "lic": 914,
      "ship": 915,
      "both": 916,
      "myself": 917,
      "until": 918,
      "ible": 919,
      "sound": 920,
      "sign": 921,
      "die": 922,
      "hope": 923,
      "happy": 924,
      "drink": 925,
      "lt": 926,
      "yet": 927,
      "din": 928,
      "vo": 929,
      "lie": 930,
      "says": 931,
      "morrow": 932,
      "matter": 933,
      "ev": 934,
      "inter": 935,
      "amer": 936,
      "low": 937,
      "looks": 938,
      "tomorrow": 939,
      "heart": 940,
      "ob": 941,
      "full": 942,
      "sleep": 943,
      "wants": 944,
      "thinking": 945,
      "tre": 946,
      "stuff": 947,
      "tonight": 948,
      "each": 949,
      "band": 950,
      "pic": 951,
      "gg": 952,
      "inc": 953,
      "law": 954,
      "later": 955,
      "mur": 956,
      "exact": 957,
      "gone": 958,
      "ven": 959,
      "led": 960,
      "ghter": 961,
      "eas": 962,
      "dec": 963,
      "diffe": 964,
      "probab": 965,
      "break": 966,
      "pect": 967,
      "book": 968,
      "death": 969,
      "kids": 970,
      "ness": 971,
      "probably": 972,
      "cal": 973,
      "pat": 974,
      "llow": 975,
      "also": 976,
      "working": 977,
      "ings": 978,
      "ared": 979,
      "honey": 980,
      "phone": 981,
      "cat": 982,
      "clear": 983,
      "true": 984,
      "ister": 985,
      "swe": 986,
      "trust": 987,
      "ned": 988,
      "business": 989,
      "poss": 990,
      "month": 991,
      "sk": 992,
      "gotta": 993,
      "cus": 994,
      "walk": 995,
      "ize": 996,
      "five": 997,
      "dau": 998,
      "log": 999,
      "fect": 1000,
      "har": 1001,
      "aren": 1002,
      "gi": 1003,
      "cri": 1004,
      "vic": 1005,
      "ins": 1006,
      "eat": 1007,
      "num": 1008,
      "luck": 1009,
      "change": 1010,
      "ations": 1011,
      "taking": 1012,
      "fire": 1013,
      "ird": 1014,
      "iful": 1015,
      "da": 1016,
      "ball": 1017,
      "line": 1018,
      "fre": 1019,
      "pick": 1020,
      "somebody": 1021,
      "key": 1022,
      "inte": 1023,
      "daughter": 1024,
      "ling": 1025,
      "vie": 1026,
      "problem": 1027,
      "beautiful": 1028,
      "supposed": 1029,
      "hit": 1030,
      "exactly": 1031,
      "minutes": 1032,
      "huh": 1033,
      "eyes": 1034,
      "als": 1035,
      "knows": 1036,
      "blood": 1037,
      "ian": 1038,
      "town": 1039,
      "ket": 1040,
      "exc": 1041,
      "wonder": 1042,
      "test": 1043,
      "gave": 1044,
      "dro": 1045,
      "means": 1046,
      "close": 1047,
      "reason": 1048,
      "ouble": 1049,
      "half": 1050,
      "zy": 1051,
      "cial": 1052,
      "den": 1053,
      "dar": 1054,
      "truth": 1055,
      "inside": 1056,
      "lost": 1057,
      "figu": 1058,
      "number": 1059,
      "though": 1060,
      "cu": 1061,
      "tain": 1062,
      "met": 1063,
      "stre": 1064,
      "hor": 1065,
      "gun": 1066,
      "pain": 1067,
      "ng": 1068,
      "power": 1069,
      "dan": 1070,
      "ison": 1071,
      "ump": 1072,
      "mi": 1073,
      "vers": 1074,
      "sex": 1075,
      "water": 1076,
      "cess": 1077,
      "makes": 1078,
      "chance": 1079,
      "plain": 1080,
      "lle": 1081,
      "import": 1082,
      "shot": 1083,
      "send": 1084,
      "four": 1085,
      "poli": 1086,
      "grand": 1087,
      "ane": 1088,
      "hus": 1089,
      "order": 1090,
      "making": 1091,
      "free": 1092,
      "ates": 1093,
      "ween": 1094,
      "least": 1095,
      "doctor": 1096,
      "arent": 1097,
      "fron": 1098,
      "interest": 1099,
      "buy": 1100,
      "whatever": 1101,
      "different": 1102,
      "fast": 1103,
      "comes": 1104,
      "couple": 1105,
      "gets": 1106,
      "pull": 1107,
      "mer": 1108,
      "ual": 1109,
      "hurt": 1110,
      "cent": 1111,
      "ither": 1112,
      "ris": 1113,
      "ted": 1114,
      "gs": 1115,
      "hours": 1116,
      "waiting": 1117,
      "fic": 1118,
      "inv": 1119,
      "sou": 1120,
      "against": 1121,
      "sol": 1122,
      "husband": 1123,
      "lear": 1124,
      "unch": 1125,
      "worry": 1126,
      "cks": 1127,
      "important": 1128,
      "sim": 1129,
      "eng": 1130,
      "ones": 1131,
      "ls": 1132,
      "fort": 1133,
      "between": 1134,
      "mad": 1135,
      "party": 1136,
      "op": 1137,
      "mou": 1138,
      "ced": 1139,
      "tive": 1140,
      "asked": 1141,
      "six": 1142,
      "hands": 1143,
      "ator": 1144,
      "city": 1145,
      "speak": 1146,
      "damn": 1147,
      "ross": 1148,
      "police": 1149,
      "anger": 1150,
      "wit": 1151,
      "ital": 1152,
      "lead": 1153,
      "cept": 1154,
      "enti": 1155,
      "bi": 1156,
      "front": 1157,
      "mill": 1158,
      "sister": 1159,
      "vor": 1160,
      "story": 1161,
      "val": 1162,
      "aw": 1163,
      "telling": 1164,
      "anymore": 1165,
      "moment": 1166,
      "shut": 1167,
      "safe": 1168,
      "died": 1169,
      "raid": 1170,
      "beg": 1171,
      "everybody": 1172,
      "mine": 1173,
      "young": 1174,
      "anyway": 1175,
      "black": 1176,
      "fall": 1177,
      "res": 1178,
      "lea": 1179,
      "prom": 1180,
      "ort": 1181,
      "star": 1182,
      "ama": 1183,
      "easy": 1184,
      "human": 1185,
      "possible": 1186,
      "pi": 1187,
      "secre": 1188,
      "appe": 1189,
      "game": 1190,
      "ring": 1191,
      "alive": 1192,
      "team": 1193,
      "tra": 1194,
      "prote": 1195,
      "gra": 1196,
      "fact": 1197,
      "joh": 1198,
      "mus": 1199,
      "wish": 1200,
      "tried": 1201,
      "nobody": 1202,
      "cli": 1203,
      "dest": 1204,
      "started": 1205,
      "mag": 1206,
      "flo": 1207,
      "girls": 1208,
      "ident": 1209,
      "capt": 1210,
      "dream": 1211,
      "john": 1212,
      "arch": 1213,
      "jack": 1214,
      "stup": 1215,
      "hot": 1216,
      "save": 1217,
      "spo": 1218,
      "tom": 1219,
      "chang": 1220,
      "ters": 1221,
      "ba": 1222,
      "crazy": 1223,
      "goes": 1224,
      "needs": 1225,
      "hind": 1226,
      "follow": 1227,
      "ush": 1228,
      "stupid": 1229,
      "rid": 1230,
      "afraid": 1231,
      "scre": 1232,
      "pie": 1233,
      "step": 1234,
      "lau": 1235,
      "build": 1236,
      "sun": 1237,
      "tou": 1238,
      "ele": 1239,
      "minute": 1240,
      "sometimes": 1241,
      "office": 1242,
      "ised": 1243,
      "comple": 1244,
      "ture": 1245,
      "women": 1246,
      "children": 1247,
      "ks": 1248,
      "trouble": 1249,
      "shall": 1250,
      "bye": 1251,
      "ited": 1252,
      "press": 1253,
      "expect": 1254,
      "sel": 1255,
      "behind": 1256,
      "roy": 1257,
      "ja": 1258,
      "gest": 1259,
      "bull": 1260,
      "contro": 1261,
      "ition": 1262,
      "americ": 1263,
      "almost": 1264,
      "dinner": 1265,
      "months": 1266,
      "seems": 1267,
      "question": 1268,
      "ef": 1269,
      "conf": 1270,
      "serious": 1271,
      "wel": 1272,
      "brought": 1273,
      "lar": 1274,
      "mid": 1275,
      "sub": 1276,
      "fer": 1277,
      "return": 1278,
      "wear": 1279,
      "que": 1280,
      "lives": 1281,
      "lock": 1282,
      "ue": 1283,
      "terri": 1284,
      "bri": 1285,
      "nat": 1286,
      "rel": 1287,
      "tory": 1288,
      "dog": 1289,
      "fair": 1290,
      "hang": 1291,
      "lady": 1292,
      "country": 1293,
      "food": 1294,
      "murder": 1295,
      "sus": 1296,
      "wall": 1297,
      "top": 1298,
      "cover": 1299,
      "peri": 1300,
      "special": 1301,
      "plo": 1302,
      "sell": 1303,
      "spon": 1304,
      "prof": 1305,
      "running": 1306,
      "worth": 1307,
      "fac": 1308,
      "mal": 1309,
      "ni": 1310,
      "clean": 1311,
      "answer": 1312,
      "offic": 1313,
      "either": 1314,
      "oper": 1315,
      "news": 1316,
      "cord": 1317,
      "ught": 1318,
      "ze": 1319,
      "forget": 1320,
      "pping": 1321,
      "living": 1322,
      "ient": 1323,
      "dow": 1324,
      "colle": 1325,
      "certain": 1326,
      "main": 1327,
      "gent": 1328,
      "married": 1329,
      "parent": 1330,
      "ped": 1331,
      "quite": 1332,
      "attack": 1333,
      "bill": 1334,
      "outside": 1335,
      "perfect": 1336,
      "sense": 1337,
      "picture": 1338,
      "col": 1339,
      "cted": 1340,
      "pass": 1341,
      "explain": 1342,
      "ons": 1343,
      "taken": 1344,
      "imag": 1345,
      "gar": 1346,
      "mb": 1347,
      "leg": 1348,
      "past": 1349,
      "lying": 1350,
      "boys": 1351,
      "sam": 1352,
      "card": 1353,
      "gn": 1354,
      "mic": 1355,
      "cool": 1356,
      "posit": 1357,
      "vice": 1358,
      "train": 1359,
      "io": 1360,
      "excuse": 1361,
      "secret": 1362,
      "along": 1363,
      "ments": 1364,
      "ched": 1365,
      "street": 1366,
      "lin": 1367,
      "company": 1368,
      "burn": 1369,
      "tim": 1370,
      "ield": 1371,
      "eral": 1372,
      "hair": 1373,
      "class": 1374,
      "ished": 1375,
      "mrs": 1376,
      "inve": 1377,
      "strong": 1378,
      "leaving": 1379,
      "captain": 1380,
      "ically": 1381,
      "sident": 1382,
      "hon": 1383,
      "tem": 1384,
      "shouldn": 1385,
      "cam": 1386,
      "feeling": 1387,
      "pho": 1388,
      "stra": 1389,
      "ries": 1390,
      "anybody": 1391,
      "joy": 1392,
      "paper": 1393,
      "respon": 1394,
      "bur": 1395,
      "ked": 1396,
      "ler": 1397,
      "ran": 1398,
      "record": 1399,
      "happens": 1400,
      "tu": 1401,
      "catch": 1402,
      "lose": 1403,
      "iles": 1404,
      "dress": 1405,
      "tt": 1406,
      "aster": 1407,
      "earth": 1408,
      "lly": 1409,
      "acc": 1410,
      "cop": 1411,
      "mit": 1412,
      "white": 1413,
      "weeks": 1414,
      "hate": 1415,
      "yours": 1416,
      "oud": 1417,
      "len": 1418,
      "state": 1419,
      "iss": 1420,
      "selves": 1421,
      "control": 1422,
      "ene": 1423,
      "road": 1424,
      "parents": 1425,
      "cannot": 1426,
      "meeting": 1427,
      "sounds": 1428,
      "cry": 1429,
      "chr": 1430,
      "aking": 1431,
      "danger": 1432,
      "sort": 1433,
      "daddy": 1434,
      "touch": 1435,
      "alright": 1436,
      "funny": 1437,
      "complete": 1438,
      "mil": 1439,
      "shoot": 1440,
      "figure": 1441,
      "cell": 1442,
      "known": 1443,
      "himself": 1444,
      "ately": 1445,
      "super": 1446,
      "bitch": 1447,
      "tic": 1448,
      "thre": 1449,
      "asking": 1450,
      "box": 1451,
      "small": 1452,
      "va": 1453,
      "dle": 1454,
      "bir": 1455,
      "uni": 1456,
      "ility": 1457,
      "idence": 1458,
      "cold": 1459,
      "sick": 1460,
      "vious": 1461,
      "stru": 1462,
      "dist": 1463,
      "gy": 1464,
      "pas": 1465,
      "itting": 1466,
      "ches": 1467,
      "mission": 1468,
      "ili": 1469,
      "ants": 1470,
      "apart": 1471,
      "ial": 1472,
      "ney": 1473,
      "drive": 1474,
      "looked": 1475,
      "ground": 1476,
      "playing": 1477,
      "giving": 1478,
      "president": 1479,
      "surpr": 1480,
      "eye": 1481,
      "fl": 1482,
      "cap": 1483,
      "lord": 1484,
      "sco": 1485,
      "search": 1486,
      "agent": 1487,
      "jud": 1488,
      "inform": 1489,
      "unk": 1490,
      "seem": 1491,
      "fle": 1492,
      "wing": 1493,
      "become": 1494,
      "using": 1495,
      "trans": 1496,
      "date": 1497,
      "zing": 1498,
      "choice": 1499,
      "throw": 1500,
      "present": 1501,
      "spect": 1502,
      "ley": 1503,
      "hmm": 1504,
      "bag": 1505,
      "clu": 1506,
      "pur": 1507,
      "dark": 1508,
      "ond": 1509,
      "stem": 1510,
      "birth": 1511,
      "sal": 1512,
      "moving": 1513,
      "dru": 1514,
      "lit": 1515,
      "hy": 1516,
      "rad": 1517,
      "van": 1518,
      "hosp": 1519,
      "onest": 1520,
      "christ": 1521,
      "ier": 1522,
      "stick": 1523,
      "welcome": 1524,
      "near": 1525,
      "takes": 1526,
      "fix": 1527,
      "uring": 1528,
      "gue": 1529,
      "ists": 1530,
      "ized": 1531,
      "ror": 1532,
      "ats": 1533,
      "quick": 1534,
      "ctive": 1535,
      "somewhere": 1536,
      "brain": 1537,
      "bud": 1538,
      "dire": 1539,
      "honest": 1540,
      "secur": 1541,
      "def": 1542,
      "track": 1543,
      "pub": 1544,
      "sold": 1545,
      "protect": 1546,
      "dra": 1547,
      "needed": 1548,
      "works": 1549,
      "priv": 1550,
      "system": 1551,
      "swee": 1552,
      "ina": 1553,
      "prison": 1554,
      "lucky": 1555,
      "hes": 1556,
      "gover": 1557,
      "spend": 1558,
      "arm": 1559,
      "loved": 1560,
      "wedding": 1561,
      "invest": 1562,
      "security": 1563,
      "ssed": 1564,
      "ject": 1565,
      "stri": 1566,
      "ith": 1567,
      "learn": 1568,
      "mouth": 1569,
      "others": 1570,
      "gl": 1571,
      "mp": 1572,
      "enter": 1573,
      "fault": 1574,
      "worked": 1575,
      "write": 1576,
      "base": 1577,
      "ics": 1578,
      "sage": 1579,
      "gentle": 1580,
      "hospital": 1581,
      "glad": 1582,
      "hall": 1583,
      "board": 1584,
      "destroy": 1585,
      "ief": 1586,
      "?\"": 1587,
      "gas": 1588,
      "million": 1589,
      "photo": 1590,
      "dou": 1591,
      "roll": 1592,
      "ute": 1593,
      "rence": 1594,
      "ib": 1595,
      "ided": 1596,
      "rob": 1597,
      "wood": 1598,
      "favor": 1599,
      "round": 1600,
      "action": 1601,
      "seeing": 1602,
      "changed": 1603,
      "spir": 1604,
      "ering": 1605,
      "court": 1606,
      "words": 1607,
      "field": 1608,
      "happening": 1609,
      "frank": 1610,
      "dered": 1611,
      "weren": 1612,
      "fil": 1613,
      "ire": 1614,
      "music": 1615,
      "asure": 1616,
      "tie": 1617,
      "dear": 1618,
      "entire": 1619,
      "laugh": 1620,
      "ale": 1621,
      "ged": 1622,
      "till": 1623,
      "longer": 1624,
      "sweet": 1625,
      "finally": 1626,
      "foot": 1627,
      "join": 1628,
      "ities": 1629,
      "guard": 1630,
      "rather": 1631,
      "turned": 1632,
      "cla": 1633,
      "fish": 1634,
      "experi": 1635,
      "calling": 1636,
      "straight": 1637,
      "pack": 1638,
      "ense": 1639,
      "unless": 1640,
      "gan": 1641,
      "mach": 1642,
      "felt": 1643,
      "igh": 1644,
      "report": 1645,
      "iting": 1646,
      "caught": 1647,
      "agree": 1648,
      "born": 1649,
      "squ": 1650,
      "fell": 1651,
      "questions": 1652,
      "rich": 1653,
      "piece": 1654,
      "cas": 1655,
      "vir": 1656,
      "thor": 1657,
      "given": 1658,
      "stead": 1659,
      "dent": 1660,
      "view": 1661,
      "promise": 1662,
      "bs": 1663,
      "mas": 1664,
      "vel": 1665,
      "offe": 1666,
      "thinks": 1667,
      "appro": 1668,
      "begin": 1669,
      "hid": 1670,
      "thy": 1671,
      "thes": 1672,
      "beat": 1673,
      "psy": 1674,
      "fully": 1675,
      "\"?": 1676,
      "cir": 1677,
      "phy": 1678,
      "song": 1679,
      "hole": 1680,
      "information": 1681,
      "ping": 1682,
      "conne": 1683,
      "fool": 1684,
      "ride": 1685,
      "public": 1686,
      "ature": 1687,
      "haps": 1688,
      "cked": 1689,
      "ming": 1690,
      "vill": 1691,
      "ka": 1692,
      "mir": 1693,
      "sat": 1694,
      "mess": 1695,
      "pet": 1696,
      "perhaps": 1697,
      "ahead": 1698,
      "fut": 1699,
      "reco": 1700,
      "ils": 1701,
      "command": 1702,
      "relation": 1703,
      "lan": 1704,
      "weird": 1705,
      "missing": 1706,
      "building": 1707,
      "sme": 1708,
      "enjoy": 1709,
      "contin": 1710,
      "uation": 1711,
      "respect": 1712,
      "concer": 1713,
      "handle": 1714,
      "moved": 1715,
      "jes": 1716,
      "kick": 1717,
      "yester": 1718,
      "window": 1719,
      ",\"": 1720,
      "lay": 1721,
      "os": 1722,
      "ens": 1723,
      "except": 1724,
      "scared": 1725,
      "middle": 1726,
      "camer": 1727,
      "owed": 1728,
      "yesterday": 1729,
      "fit": 1730,
      "gif": 1731,
      "grow": 1732,
      "vin": 1733,
      "yor": 1734,
      "gold": 1735,
      "force": 1736,
      "coun": 1737,
      "hung": 1738,
      "vy": 1739,
      "poor": 1740,
      "none": 1741,
      "busy": 1742,
      "watching": 1743,
      "treat": 1744,
      "accident": 1745,
      "table": 1746,
      "memor": 1747,
      "worried": 1748,
      "meant": 1749,
      "tech": 1750,
      "maj": 1751,
      "fly": 1752,
      "hen": 1753,
      "ya": 1754,
      "iled": 1755,
      "future": 1756,
      "rain": 1757,
      "reg": 1758,
      "shi": 1759,
      "fing": 1760,
      "cook": 1761,
      "proper": 1762,
      "lfriend": 1763,
      "mark": 1764,
      "girlfriend": 1765,
      "pal": 1766,
      "arrest": 1767,
      "ali": 1768,
      "york": 1769,
      "kno": 1770,
      "slow": 1771,
      "forgot": 1772,
      "add": 1773,
      "consid": 1774,
      "floor": 1775,
      "investig": 1776,
      "apo": 1777,
      "issu": 1778,
      "abo": 1779,
      "smell": 1780,
      "bank": 1781,
      "yo": 1782,
      "bath": 1783,
      "talked": 1784,
      "park": 1785,
      "amazing": 1786,
      "vide": 1787,
      "rece": 1788,
      "peace": 1789,
      "gram": 1790,
      "clothes": 1791,
      "deser": 1792,
      "ko": 1793,
      "weap": 1794,
      "kept": 1795,
      "killing": 1796,
      "bas": 1797,
      "san": 1798,
      "anim": 1799,
      "evidence": 1800,
      "ges": 1801,
      "aged": 1802,
      "comput": 1803,
      "broke": 1804,
      "lon": 1805,
      "paid": 1806,
      "tar": 1807,
      "anywhere": 1808,
      "cast": 1809,
      "stopped": 1810,
      "dangerous": 1811,
      "vol": 1812,
      "short": 1813,
      "contact": 1814,
      "message": 1815,
      "master": 1816,
      "ray": 1817,
      "ann": 1818,
      "tract": 1819,
      "dying": 1820,
      "ladies": 1821,
      "crime": 1822,
      "gro": 1823,
      "cing": 1824,
      "seven": 1825,
      "arri": 1826,
      "ention": 1827,
      "chief": 1828,
      "drop": 1829,
      "pose": 1830,
      "sug": 1831,
      "finish": 1832,
      "jump": 1833,
      "hero": 1834,
      "sides": 1835,
      "early": 1836,
      "blu": 1837,
      "during": 1838,
      "ative": 1839,
      "across": 1840,
      "space": 1841,
      "dude": 1842,
      "sad": 1843,
      "net": 1844,
      "tel": 1845,
      "worse": 1846,
      "ages": 1847,
      "ular": 1848,
      "pract": 1849,
      "personal": 1850,
      "commun": 1851,
      "position": 1852,
      "fill": 1853,
      "dete": 1854,
      "mistake": 1855,
      "hello": 1856,
      "suggest": 1857,
      "rus": 1858,
      "event": 1859,
      "prep": 1860,
      "viously": 1861,
      "cro": 1862,
      "instead": 1863,
      "suit": 1864,
      "wow": 1865,
      "ational": 1866,
      "bal": 1867,
      "tot": 1868,
      "heal": 1869,
      "feet": 1870,
      "deli": 1871,
      "oc": 1872,
      "doll": 1873,
      "strange": 1874,
      "responsi": 1875,
      "fat": 1876,
      "load": 1877,
      "decided": 1878,
      "lent": 1879,
      "boss": 1880,
      "bomb": 1881,
      "produ": 1882,
      "carry": 1883,
      "dance": 1884,
      "sar": 1885,
      "stair": 1886,
      "post": 1887,
      "boo": 1888,
      "aste": 1889,
      "ends": 1890,
      "single": 1891,
      "voice": 1892,
      "awe": 1893,
      "sl": 1894,
      "vid": 1895,
      "sty": 1896,
      "station": 1897,
      "vered": 1898,
      "ben": 1899,
      "prove": 1900,
      "steal": 1901,
      "patient": 1902,
      "invol": 1903,
      "imagine": 1904,
      "bird": 1905,
      "cup": 1906,
      "pan": 1907,
      "deep": 1908,
      "suc": 1909,
      "suppose": 1910,
      "govern": 1911,
      "ford": 1912,
      "tired": 1913,
      "bought": 1914,
      "ey": 1915,
      "grab": 1916,
      "reci": 1917,
      "trave": 1918,
      "normal": 1919,
      "honor": 1920,
      "rup": 1921,
      "rele": 1922,
      "motion": 1923,
      "lunch": 1924,
      "ances": 1925,
      "lies": 1926,
      "defin": 1927,
      "offer": 1928,
      "killer": 1929,
      "marry": 1930,
      "blow": 1931,
      "totally": 1932,
      "bla": 1933,
      "nif": 1934,
      "andy": 1935,
      "forward": 1936,
      "bt": 1937,
      "orge": 1938,
      "sci": 1939,
      "terrible": 1940,
      "completely": 1941,
      "stairs": 1942,
      "dred": 1943,
      "kiss": 1944,
      "uck": 1945,
      "plac": 1946,
      "explo": 1947,
      "ended": 1948,
      "grou": 1949,
      "mention": 1950,
      "smart": 1951,
      "appear": 1952,
      "wearing": 1953,
      "gri": 1954,
      "ii": 1955,
      "thous": 1956,
      "medi": 1957,
      "chick": 1958,
      "movie": 1959,
      "store": 1960,
      "birthday": 1961,
      "jesus": 1962,
      "bra": 1963,
      "wise": 1964,
      "boyfriend": 1965,
      "diffic": 1966,
      "thousand": 1967,
      "fan": 1968,
      "lish": 1969,
      "pop": 1970,
      "shoo": 1971,
      "pun": 1972,
      "hea": 1973,
      "hood": 1974,
      "saved": 1975,
      "hasn": 1976,
      "share": 1977,
      "gal": 1978,
      "accept": 1979,
      "drag": 1980,
      "standing": 1981,
      "relationship": 1982,
      "awesome": 1983,
      "ied": 1984,
      "thro": 1985,
      "starting": 1986,
      "situation": 1987,
      "interesting": 1988,
      "ply": 1989,
      "zz": 1990,
      "west": 1991,
      "account": 1992,
      "uncle": 1993,
      "realize": 1994,
      "club": 1995,
      "tv": 1996,
      "tough": 1997,
      "wers": 1998,
      "history": 1999,
      "hundred": 2000,
      "officer": 2001,
      "recogn": 2002,
      "jim": 2003,
      "ties": 2004,
      "teach": 2005,
      "lawy": 2006,
      "wake": 2007,
      "acy": 2008,
      "itor": 2009,
      "smo": 2010,
      "belong": 2011,
      "forgive": 2012,
      "hol": 2013,
      "whoa": 2014,
      "exam": 2015,
      "pray": 2016,
      "feels": 2017,
      "suspect": 2018,
      "government": 2019,
      "non": 2020,
      "acher": 2021,
      "loc": 2022,
      "crap": 2023,
      "wards": 2024,
      "american": 2025,
      "cross": 2026,
      "sli": 2027,
      "fear": 2028,
      "spent": 2029,
      "trip": 2030,
      "fighting": 2031,
      "coffe": 2032,
      "ky": 2033,
      "inst": 2034,
      "assu": 2035,
      "bob": 2036,
      "calls": 2037,
      "brid": 2038,
      "student": 2039,
      "south": 2040,
      "jer": 2041,
      "vent": 2042,
      "dir": 2043,
      "ony": 2044,
      "sea": 2045,
      "scene": 2046,
      "charge": 2047,
      "coffee": 2048,
      "hide": 2049,
      "mate": 2050,
      "nes": 2051,
      "ution": 2052,
      "whether": 2053,
      "\".": 2054,
      "vive": 2055,
      "unt": 2056,
      "tered": 2057,
      "vision": 2058,
      "wonderful": 2059,
      "gentlemen": 2060,
      "computer": 2061,
      "dut": 2062,
      "owe": 2063,
      "boat": 2064,
      "proud": 2065,
      "planet": 2066,
      "general": 2067,
      "threat": 2068,
      "gift": 2069,
      "hungry": 2070,
      "ram": 2071,
      "sion": 2072,
      "wind": 2073,
      "bell": 2074,
      "pos": 2075,
      "sud": 2076,
      "forever": 2077,
      "prin": 2078,
      "partner": 2079,
      "match": 2080,
      "hum": 2081,
      "kit": 2082,
      "missed": 2083,
      "swear": 2084,
      "logy": 2085,
      "figured": 2086,
      "difficult": 2087,
      "miles": 2088,
      "oun": 2089,
      "plane": 2090,
      "fur": 2091,
      "iday": 2092,
      "tee": 2093,
      "iet": 2094,
      "loves": 2095,
      "appreci": 2096,
      "private": 2097,
      "sudden": 2098,
      "sitting": 2099,
      "wash": 2100,
      "mount": 2101,
      "bat": 2102,
      "eight": 2103,
      "hat": 2104,
      "ption": 2105,
      "ron": 2106,
      "dep": 2107,
      "shar": 2108,
      "bother": 2109,
      "ilt": 2110,
      "male": 2111,
      "shop": 2112,
      "cute": 2113,
      "north": 2114,
      "magic": 2115,
      "judge": 2116,
      "bast": 2117,
      "iot": 2118,
      "ism": 2119,
      "army": 2120,
      "area": 2121,
      "comfort": 2122,
      "appoint": 2123,
      "hurry": 2124,
      "client": 2125,
      "push": 2126,
      "ending": 2127,
      "lovely": 2128,
      "attle": 2129,
      "problems": 2130,
      "decis": 2131,
      "soul": 2132,
      "group": 2133,
      "ded": 2134,
      "nut": 2135,
      "rac": 2136,
      "sn": 2137,
      "une": 2138,
      "ined": 2139,
      "absol": 2140,
      "upset": 2141,
      "rench": 2142,
      "gener": 2143,
      "victim": 2144,
      "ns": 2145,
      "ana": 2146,
      "arr": 2147,
      "rock": 2148,
      "quar": 2149,
      "max": 2150,
      "seriously": 2151,
      "certainly": 2152,
      "ki": 2153,
      "sive": 2154,
      "esca": 2155,
      "putting": 2156,
      "riage": 2157,
      "within": 2158,
      "ural": 2159,
      "green": 2160,
      "evening": 2161,
      "mmer": 2162,
      "blue": 2163,
      "fed": 2164,
      "service": 2165,
      "lived": 2166,
      "apartment": 2167,
      "major": 2168,
      "consider": 2169,
      "neigh": 2170,
      "dev": 2171,
      "iling": 2172,
      "joke": 2173,
      "mary": 2174,
      "stuck": 2175,
      "**": 2176,
      "besides": 2177,
      "hotel": 2178,
      "bow": 2179,
      "survive": 2180,
      "interested": 2181,
      "ging": 2182,
      "ker": 2183,
      "quiet": 2184,
      "cording": 2185,
      "spot": 2186,
      "mc": 2187,
      "tree": 2188,
      "remind": 2189,
      "ener": 2190,
      "cost": 2191,
      "discus": 2192,
      "bloody": 2193,
      "attention": 2194,
      "possib": 2195,
      "absolute": 2196,
      "cru": 2197,
      "ext": 2198,
      "sett": 2199,
      "calm": 2200,
      "witch": 2201,
      "remain": 2202,
      "noon": 2203,
      "bear": 2204,
      "covered": 2205,
      "helping": 2206,
      "support": 2207,
      "famili": 2208,
      "simple": 2209,
      "buddy": 2210,
      "ying": 2211,
      "ines": 2212,
      "teacher": 2213,
      "convers": 2214,
      "extra": 2215,
      "itely": 2216,
      "cially": 2217,
      "cket": 2218,
      "equ": 2219,
      "nine": 2220,
      "pus": 2221,
      "staying": 2222,
      "author": 2223,
      "finished": 2224,
      "college": 2225,
      "weak": 2226,
      "allow": 2227,
      "hook": 2228,
      "program": 2229,
      "crew": 2230,
      "charlie": 2231,
      "release": 2232,
      "lab": 2233,
      "mart": 2234,
      "iny": 2235,
      "hael": 2236,
      "holy": 2237,
      "truck": 2238,
      "holding": 2239,
      "horse": 2240,
      "queen": 2241,
      "sher": 2242,
      "itary": 2243,
      "ham": 2244,
      "chur": 2245,
      "ung": 2246,
      "fresh": 2247,
      "passed": 2248,
      "cab": 2249,
      "french": 2250,
      "ref": 2251,
      "moon": 2252,
      "del": 2253,
      "pper": 2254,
      "gress": 2255,
      "feelings": 2256,
      "walking": 2257,
      "reli": 2258,
      "acting": 2259,
      "ctions": 2260,
      "michael": 2261,
      "cred": 2262,
      "pes": 2263,
      "sand": 2264,
      "ric": 2265,
      "chris": 2266,
      "pot": 2267,
      "suck": 2268,
      "stood": 2269,
      "risk": 2270,
      "bullet": 2271,
      "cake": 2272,
      "wine": 2273,
      "sess": 2274,
      "bey": 2275,
      "tight": 2276,
      "feed": 2277,
      "depart": 2278,
      "marriage": 2279,
      "america": 2280,
      "christmas": 2281,
      "bastard": 2282,
      "cen": 2283,
      "ost": 2284,
      "stage": 2285,
      "definitely": 2286,
      "nie": 2287,
      "kets": 2288,
      "shir": 2289,
      "chair": 2290,
      "visit": 2291,
      "church": 2292,
      ".'": 2293,
      "cure": 2294,
      "race": 2295,
      "vant": 2296,
      "rot": 2297,
      "pleasure": 2298,
      "ession": 2299,
      "angry": 2300,
      "careful": 2301,
      "clar": 2302,
      "driving": 2303,
      "evil": 2304,
      "ug": 2305,
      "cops": 2306,
      "iff": 2307,
      "bot": 2308,
      "broken": 2309,
      "closer": 2310,
      "jail": 2311,
      "cash": 2312,
      "jour": 2313,
      "opp": 2314,
      "resu": 2315,
      "rela": 2316,
      "reach": 2317,
      "theart": 2318,
      "ager": 2319,
      "bert": 2320,
      "choose": 2321,
      "seconds": 2322,
      "skin": 2323,
      "sweetheart": 2324,
      "bon": 2325,
      "han": 2326,
      "member": 2327,
      "velo": 2328,
      "cher": 2329,
      "likes": 2330,
      "nty": 2331,
      "guest": 2332,
      "confir": 2333,
      "crack": 2334,
      "mike": 2335,
      "fortun": 2336,
      "surprise": 2337,
      "involved": 2338,
      "dig": 2339,
      "fro": 2340,
      "tur": 2341,
      "zo": 2342,
      "conv": 2343,
      "pregn": 2344,
      "pair": 2345,
      "corre": 2346,
      "machine": 2347,
      "ds": 2348,
      "gay": 2349,
      "mand": 2350,
      "ners": 2351,
      "nick": 2352,
      "wound": 2353,
      "became": 2354,
      "coll": 2355,
      "tea": 2356,
      "tran": 2357,
      "ban": 2358,
      "hill": 2359,
      "address": 2360,
      "chi": 2361,
      "usually": 2362,
      "peter": 2363,
      "everywhere": 2364,
      "umb": 2365,
      "gives": 2366,
      "keeping": 2367,
      "path": 2368,
      "kidding": 2369,
      "za": 2370,
      "arms": 2371,
      "espe": 2372,
      "george": 2373,
      "nel": 2374,
      "deta": 2375,
      "herself": 2376,
      "emp": 2377,
      "rules": 2378,
      "price": 2379,
      "witness": 2380,
      "appreciate": 2381,
      "bunch": 2382,
      "flow": 2383,
      "rer": 2384,
      "idiot": 2385,
      "rote": 2386,
      "necess": 2387,
      "pres": 2388,
      "blind": 2389,
      "sleeping": 2390,
      "video": 2391,
      "lawyer": 2392,
      "especially": 2393,
      "ors": 2394,
      "organ": 2395,
      "level": 2396,
      "hadn": 2397,
      "chen": 2398,
      "intro": 2399,
      "lights": 2400,
      "camera": 2401,
      "dry": 2402,
      "mum": 2403,
      "anti": 2404,
      "ghost": 2405,
      "river": 2406,
      "cele": 2407,
      "suff": 2408,
      "stole": 2409,
      "doubt": 2410,
      "absolutely": 2411,
      "dare": 2412,
      "national": 2413,
      "rat": 2414,
      "third": 2415,
      "repor": 2416,
      "often": 2417,
      "wild": 2418,
      "tiv": 2419,
      "ific": 2420,
      "bott": 2421,
      "mail": 2422,
      "joe": 2423,
      "drug": 2424,
      "phys": 2425,
      "knock": 2426,
      "file": 2427,
      "wrote": 2428,
      "lier": 2429,
      "whose": 2430,
      "drunk": 2431,
      "emer": 2432,
      "vio": 2433,
      "warm": 2434,
      "obviously": 2435,
      "freak": 2436,
      "alex": 2437,
      "introdu": 2438,
      "dick": 2439,
      "double": 2440,
      "eating": 2441,
      "ordin": 2442,
      "neck": 2443,
      "fol": 2444,
      "stor": 2445,
      "spec": 2446,
      "speed": 2447,
      "learned": 2448,
      "above": 2449,
      "sla": 2450,
      "thin": 2451,
      "stone": 2452,
      "essor": 2453,
      "verse": 2454,
      "letter": 2455,
      "quit": 2456,
      "aven": 2457,
      "books": 2458,
      "relax": 2459,
      "tro": 2460,
      "inno": 2461,
      "ising": 2462,
      "chuck": 2463,
      "common": 2464,
      "itted": 2465,
      "fied": 2466,
      "paul": 2467,
      "sky": 2468,
      "wondering": 2469,
      "apolog": 2470,
      "emotion": 2471,
      "pill": 2472,
      "rope": 2473,
      "rick": 2474,
      "willing": 2475,
      "medical": 2476,
      "apparent": 2477,
      "huge": 2478,
      "locked": 2479,
      "radio": 2480,
      "shooting": 2481,
      "dirty": 2482,
      "swi": 2483,
      "ino": 2484,
      "ourselves": 2485,
      "raise": 2486,
      "type": 2487,
      "speaking": 2488,
      "bigger": 2489,
      "medic": 2490,
      "military": 2491,
      "hiding": 2492,
      "science": 2493,
      "jen": 2494,
      "tour": 2495,
      "island": 2496,
      "impossible": 2497,
      "plant": 2498,
      "fuckin": 2499,
      "turns": 2500,
      "played": 2501,
      "drinking": 2502,
      "success": 2503,
      "bing": 2504,
      "eu": 2505,
      "fli": 2506,
      "phe": 2507,
      "weight": 2508,
      "bel": 2509,
      "tele": 2510,
      "professor": 2511,
      "issue": 2512,
      "receive": 2513,
      "aur": 2514,
      "east": 2515,
      "afternoon": 2516,
      "russi": 2517,
      "mountain": 2518,
      "crow": 2519,
      "eh": 2520,
      "lou": 2521,
      "sof": 2522,
      "ination": 2523,
      "beer": 2524,
      "asses": 2525,
      "according": 2526,
      "hoping": 2527,
      "code": 2528,
      "chan": 2529,
      "keeps": 2530,
      "picked": 2531,
      "camp": 2532,
      "spirit": 2533,
      "conversation": 2534,
      "jac": 2535,
      "admit": 2536,
      "themselves": 2537,
      "named": 2538,
      "trick": 2539,
      "following": 2540,
      "blame": 2541,
      "bridge": 2542,
      "wis": 2543,
      "isa": 2544,
      "aly": 2545,
      "lied": 2546,
      "assist": 2547,
      "brea": 2548,
      "inclu": 2549,
      "crimin": 2550,
      "film": 2551,
      "bod": 2552,
      "mass": 2553,
      "sac": 2554,
      "reed": 2555,
      "allowed": 2556,
      "...?": 2557,
      "aming": 2558,
      "trac": 2559,
      "helped": 2560,
      "spoke": 2561,
      "ships": 2562,
      "bare": 2563,
      "flu": 2564,
      "ency": 2565,
      "ached": 2566,
      "poison": 2567,
      "exist": 2568,
      "sche": 2569,
      "faith": 2570,
      "cia": 2571,
      "champ": 2572,
      "listening": 2573,
      "gged": 2574,
      "quickly": 2575,
      "apparently": 2576,
      "fant": 2577,
      "nu": 2578,
      "liked": 2579,
      "color": 2580,
      "seemed": 2581,
      "serve": 2582,
      "weekend": 2583,
      "horri": 2584,
      "pictures": 2585,
      "drugs": 2586,
      "experience": 2587,
      "continue": 2588,
      "decision": 2589,
      "empty": 2590,
      "flight": 2591,
      "ians": 2592,
      "nur": 2593,
      "itu": 2594,
      "lots": 2595,
      "immedi": 2596,
      "scar": 2597,
      "shoes": 2598,
      "checked": 2599,
      "celebr": 2600,
      "battle": 2601,
      "egg": 2602,
      "nal": 2603,
      "ened": 2604,
      "uten": 2605,
      "plenty": 2606,
      "ulous": 2607,
      "brothers": 2608,
      "orders": 2609,
      "'.": 2610,
      "'?": 2611,
      "fra": 2612,
      "flat": 2613,
      "gang": 2614,
      "kis": 2615,
      "twi": 2616,
      "request": 2617,
      "lling": 2618,
      "imp": 2619,
      "teen": 2620,
      "polit": 2621,
      "worst": 2622,
      "rap": 2623,
      "grad": 2624,
      "partic": 2625,
      "names": 2626,
      "earlier": 2627,
      "natural": 2628,
      "finger": 2629,
      "bathroom": 2630,
      "gate": 2631,
      "impress": 2632,
      "terror": 2633,
      "custo": 2634,
      "english": 2635,
      "beginning": 2636,
      "detective": 2637,
      "further": 2638,
      "pressure": 2639,
      "fbi": 2640,
      "vous": 2641,
      "zer": 2642,
      "seat": 2643,
      "note": 2644,
      "develo": 2645,
      "showed": 2646,
      "heads": 2647,
      "rule": 2648,
      "fran": 2649,
      "german": 2650,
      "lieuten": 2651,
      "pulled": 2652,
      "simply": 2653,
      "leader": 2654,
      "crying": 2655,
      "memory": 2656,
      "duty": 2657,
      "dic": 2658,
      "gor": 2659,
      "pig": 2660,
      "yard": 2661,
      "access": 2662,
      "whoever": 2663,
      "david": 2664,
      "correct": 2665,
      "kar": 2666,
      "sight": 2667,
      "onel": 2668,
      "reading": 2669,
      "closed": 2670,
      "graph": 2671,
      "neighbor": 2672,
      "pregnant": 2673,
      "ather": 2674,
      "dump": 2675,
      "rout": 2676,
      "alous": 2677,
      "antic": 2678,
      "pool": 2679,
      "ille": 2680,
      "proof": 2681,
      "grace": 2682,
      "glass": 2683,
      "weapon": 2684,
      "responsible": 2685,
      "kitchen": 2686,
      "ease": 2687,
      "knif": 2688,
      "ooh": 2689,
      "pis": 2690,
      "sake": 2691,
      "neither": 2692,
      "demon": 2693,
      "trad": 2694,
      "built": 2695,
      "juli": 2696,
      "complic": 2697,
      "favorite": 2698,
      "bust": 2699,
      "sil": 2700,
      "recent": 2701,
      "heat": 2702,
      "....": 2703,
      "somehow": 2704,
      "guil": 2705,
      "summer": 2706,
      "chee": 2707,
      "restaur": 2708,
      "easier": 2709,
      "sweetie": 2710,
      "comfortable": 2711,
      "escape": 2712,
      "lieutenant": 2713,
      "jam": 2714,
      "jane": 2715,
      "notice": 2716,
      "unity": 2717,
      "upon": 2718,
      "ceed": 2719,
      "ours": 2720,
      "goodbye": 2721,
      "fired": 2722,
      "trial": 2723,
      "due": 2724,
      "enemy": 2725,
      "henry": 2726,
      "energy": 2727,
      "knife": 2728,
      "!\"": 2729,
      "mac": 2730,
      "ws": 2731,
      "research": 2732,
      "stat": 2733,
      "sever": 2734,
      "usual": 2735,
      "termin": 2736,
      "poin": 2737,
      "plus": 2738,
      "auto": 2739,
      "gery": 2740,
      "void": 2741,
      "breakfast": 2742,
      "bullshit": 2743,
      "heavy": 2744,
      "eli": 2745,
      "oking": 2746,
      "unfortun": 2747,
      "illy": 2748,
      "writing": 2749,
      "creature": 2750,
      "mix": 2751,
      "suddenly": 2752,
      "department": 2753,
      "guilty": 2754,
      "ior": 2755,
      "pit": 2756,
      "ount": 2757,
      "howe": 2758,
      "mental": 2759,
      "pretend": 2760,
      "shirt": 2761,
      "iel": 2762,
      "ference": 2763,
      "kills": 2764,
      "corner": 2765,
      "gency": 2766,
      "commit": 2767,
      "keys": 2768,
      "aware": 2769,
      "surprised": 2770,
      "claim": 2771,
      "village": 2772,
      "opport": 2773,
      "however": 2774,
      "kin": 2775,
      "spl": 2776,
      "inde": 2777,
      "lled": 2778,
      "separ": 2779,
      "cock": 2780,
      "tial": 2781,
      "ante": 2782,
      "plans": 2783,
      "astic": 2784,
      "cious": 2785,
      "goddamn": 2786,
      "incred": 2787,
      "difference": 2788,
      "tempt": 2789,
      "places": 2790,
      "smoke": 2791,
      "uc": 2792,
      "zen": 2793,
      "states": 2794,
      "host": 2795,
      "stories": 2796,
      "dies": 2797,
      "kidna": 2798,
      "mist": 2799,
      "pants": 2800,
      "ress": 2801,
      "bene": 2802,
      "iced": 2803,
      "knowing": 2804,
      "justice": 2805,
      "among": 2806,
      "tape": 2807,
      "divor": 2808,
      "serge": 2809,
      "elect": 2810,
      "gust": 2811,
      "sw": 2812,
      "lli": 2813,
      "local": 2814,
      "ify": 2815,
      "sport": 2816,
      "nervous": 2817,
      "smile": 2818,
      "barr": 2819,
      "operation": 2820,
      "records": 2821,
      "defense": 2822,
      "beyond": 2823,
      "bul": 2824,
      "gard": 2825,
      "regu": 2826,
      "ery": 2827,
      "myster": 2828,
      "tray": 2829,
      "exe": 2830,
      "otherwise": 2831,
      "itten": 2832,
      "ures": 2833,
      "rub": 2834,
      "jealous": 2835,
      "copy": 2836,
      "purpose": 2837,
      "strike": 2838,
      "sheriff": 2839,
      "innocent": 2840,
      "restaurant": 2841,
      "losing": 2842,
      "letting": 2843,
      "focus": 2844,
      "tells": 2845,
      "brit": 2846,
      "market": 2847,
      "decide": 2848,
      "appeared": 2849,
      "arrested": 2850,
      "london": 2851,
      "folks": 2852,
      "itself": 2853,
      "dom": 2854,
      "usion": 2855,
      "agreed": 2856,
      "stolen": 2857,
      "block": 2858,
      "final": 2859,
      "surgery": 2860,
      "balls": 2861,
      "promised": 2862,
      "concerned": 2863,
      "soft": 2864,
      "itude": 2865,
      "fla": 2866,
      "ired": 2867,
      "nic": 2868,
      "vac": 2869,
      "requ": 2870,
      "meat": 2871,
      "beach": 2872,
      "ids": 2873,
      "ica": 2874,
      "expen": 2875,
      "gree": 2876,
      "starts": 2877,
      "planning": 2878,
      "dreams": 2879,
      "colonel": 2880,
      "threw": 2881,
      "honestly": 2882,
      "draw": 2883,
      "arrived": 2884,
      "bodies": 2885,
      "twice": 2886,
      "bac": 2887,
      "cand": 2888,
      "dat": 2889,
      "fellow": 2890,
      "process": 2891,
      "bringing": 2892,
      "harm": 2893,
      "direct": 2894,
      "psycho": 2895,
      "necessary": 2896,
      "mama": 2897,
      "inal": 2898,
      "affair": 2899,
      "friday": 2900,
      "breaking": 2901,
      "famous": 2902,
      "freed": 2903,
      "practice": 2904,
      "emergency": 2905,
      "immediately": 2906,
      "fake": 2907,
      "sis": 2908,
      "sour": 2909,
      "held": 2910,
      "alley": 2911,
      "roof": 2912,
      "shows": 2913,
      "shower": 2914,
      "ridic": 2915,
      "subject": 2916,
      "animal": 2917,
      "avoid": 2918,
      "bang": 2919,
      "cous": 2920,
      "ius": 2921,
      "waste": 2922,
      "llen": 2923,
      "ises": 2924,
      "ences": 2925,
      "dogs": 2926,
      "coach": 2927,
      "demand": 2928,
      "complain": 2929,
      "older": 2930,
      "dropped": 2931,
      "nature": 2932,
      "hanging": 2933,
      "weapons": 2934,
      "chicken": 2935,
      "recognize": 2936,
      "several": 2937,
      "ame": 2938,
      "bay": 2939,
      "gin": 2940,
      "pher": 2941,
      "ory": 2942,
      "asing": 2943,
      "amp": 2944,
      "gotten": 2945,
      "manage": 2946,
      "iety": 2947,
      "bru": 2948,
      "fucked": 2949,
      "study": 2950,
      "design": 2951,
      "clearly": 2952,
      "walked": 2953,
      "danny": 2954,
      "profession": 2955,
      "prepare": 2956,
      "centr": 2957,
      "cum": 2958,
      "lone": 2959,
      "pound": 2960,
      "rum": 2961,
      "vies": 2962,
      "inju": 2963,
      "ret": 2964,
      "lee": 2965,
      "identi": 2966,
      "wheel": 2967,
      "scri": 2968,
      "afford": 2969,
      "hearing": 2970,
      "damage": 2971,
      "driver": 2972,
      "sym": 2973,
      "beauty": 2974,
      "effect": 2975,
      "complicated": 2976,
      "aper": 2977,
      "bum": 2978,
      "fif": 2979,
      "oli": 2980,
      "var": 2981,
      "resc": 2982,
      "onto": 2983,
      "soc": 2984,
      "unit": 2985,
      "pee": 2986,
      "finding": 2987,
      "thoughts": 2988,
      "shame": 2989,
      "large": 2990,
      "papers": 2991,
      "investigation": 2992,
      "target": 2993,
      "teeth": 2994,
      "discuss": 2995,
      "cars": 2996,
      "center": 2997,
      "instru": 2998,
      "ater": 2999,
      "stal": 3000,
      "likely": 3001,
      "stock": 3002,
      "grade": 3003,
      "clock": 3004,
      "desper": 3005,
      "venge": 3006,
      "harry": 3007,
      "powerful": 3008,
      "credit": 3009,
      "sergeant": 3010,
      "cit": 3011,
      "flying": 3012,
      "tit": 3013,
      "repe": 3014,
      "stab": 3015,
      "legs": 3016,
      "rome": 3017,
      "los": 3018,
      "loose": 3019,
      "consu": 3020,
      "prefer": 3021,
      "meaning": 3022,
      "nights": 3023,
      "headed": 3024,
      "breath": 3025,
      "bling": 3026,
      "paris": 3027,
      "murdered": 3028,
      "engine": 3029,
      "grave": 3030,
      "cards": 3031,
      "animals": 3032,
      "dollars": 3033,
      "bottle": 3034,
      "ridiculous": 3035,
      "iers": 3036,
      "spre": 3037,
      "size": 3038,
      "atic": 3039,
      "heaven": 3040,
      "ordered": 3041,
      "lim": 3042,
      "upstairs": 3043,
      "fail": 3044,
      "heading": 3045,
      "tony": 3046,
      "travel": 3047,
      "horrible": 3048,
      "ax": 3049,
      "bright": 3050,
      "mut": 3051,
      "snow": 3052,
      "iter": 3053,
      "ston": 3054,
      "andon": 3055,
      "forced": 3056,
      "adam": 3057,
      "text": 3058,
      "suic": 3059,
      "pressed": 3060,
      "tage": 3061,
      "believed": 3062,
      "farm": 3063,
      "daniel": 3064,
      "sarah": 3065,
      "extreme": 3066,
      "opportunity": 3067,
      "ado": 3068,
      "gain": 3069,
      "ral": 3070,
      "ured": 3071,
      "ano": 3072,
      "vere": 3073,
      "lift": 3074,
      "activ": 3075,
      "...\"": 3076,
      "icle": 3077,
      "contract": 3078,
      "ideas": 3079,
      "prince": 3080,
      "emplo": 3081,
      "descri": 3082,
      "condition": 3083,
      "paying": 3084,
      "excited": 3085,
      "ators": 3086,
      "milk": 3087,
      "ugly": 3088,
      "sile": 3089,
      "movies": 3090,
      "ified": 3091,
      "bless": 3092,
      "greate": 3093,
      "spee": 3094,
      "james": 3095,
      "richard": 3096,
      "storm": 3097,
      "barely": 3098,
      "unfortunately": 3099,
      "az": 3100,
      "mars": 3101,
      "sword": 3102,
      "wave": 3103,
      "lla": 3104,
      "stren": 3105,
      "asha": 3106,
      "roman": 3107,
      "anta": 3108,
      "taught": 3109,
      "chest": 3110,
      "cies": 3111,
      "embarr": 3112,
      "disappear": 3113,
      "serv": 3114,
      "biggest": 3115,
      "cream": 3116,
      "darling": 3117,
      "guns": 3118,
      "training": 3119,
      "lines": 3120,
      "settle": 3121,
      "greatest": 3122,
      "pin": 3123,
      "tch": 3124,
      "xi": 3125,
      "thur": 3126,
      "nose": 3127,
      "ices": 3128,
      "deb": 3129,
      "tery": 3130,
      "uses": 3131,
      "leaves": 3132,
      "career": 3133,
      "warning": 3134,
      "numbers": 3135,
      "awful": 3136,
      "rupt": 3137,
      "freedom": 3138,
      "spread": 3139,
      "ilet": 3140,
      "ium": 3141,
      "lts": 3142,
      "reck": 3143,
      "tori": 3144,
      "orig": 3145,
      "sees": 3146,
      "doc": 3147,
      "nowhere": 3148,
      "gee": 3149,
      "advice": 3150,
      "female": 3151,
      "const": 3152,
      "grant": 3153,
      "desk": 3154,
      "charac": 3155,
      "sexual": 3156,
      "pire": 3157,
      "grown": 3158,
      "prepared": 3159,
      "europe": 3160,
      "fred": 3161,
      "sne": 3162,
      "taste": 3163,
      "thir": 3164,
      "total": 3165,
      "project": 3166,
      "spor": 3167,
      "aff": 3168,
      "broad": 3169,
      "written": 3170,
      "kinda": 3171,
      "jeff": 3172,
      "lately": 3173,
      "matters": 3174,
      "interview": 3175,
      "babe": 3176,
      "legal": 3177,
      "universe": 3178,
      "defend": 3179,
      "jimmy": 3180,
      "possibly": 3181,
      "bottom": 3182,
      "flowers": 3183,
      "particular": 3184,
      "nar": 3185,
      "stars": 3186,
      "shif": 3187,
      "sum": 3188,
      "bleed": 3189,
      "realized": 3190,
      "signal": 3191,
      "picking": 3192,
      "painting": 3193,
      "expecting": 3194,
      "bound": 3195,
      "sch": 3196,
      "wide": 3197,
      "zed": 3198,
      "intell": 3199,
      "regre": 3200,
      "neg": 3201,
      "minister": 3202,
      "page": 3203,
      "understood": 3204,
      "ruin": 3205,
      "sence": 3206,
      "ski": 3207,
      "grandpa": 3208,
      "faster": 3209,
      "climb": 3210,
      "soldiers": 3211,
      "prints": 3212,
      "ordinary": 3213,
      "glor": 3214,
      "pha": 3215,
      "pul": 3216,
      "rand": 3217,
      "sin": 3218,
      "silly": 3219,
      "wast": 3220,
      "toilet": 3221,
      "ert": 3222,
      "noticed": 3223,
      "naked": 3224,
      "powers": 3225,
      "talent": 3226,
      "parts": 3227,
      "turning": 3228,
      "mater": 3229,
      "created": 3230,
      "sending": 3231,
      "destroyed": 3232,
      "laughing": 3233,
      "throat": 3234,
      "families": 3235,
      "streng": 3236,
      "cis": 3237,
      "ole": 3238,
      "attor": 3239,
      "soci": 3240,
      "ada": 3241,
      "tear": 3242,
      "ples": 3243,
      "asshole": 3244,
      "print": 3245,
      "personally": 3246,
      "hurts": 3247,
      "slept": 3248,
      "crash": 3249,
      "responsib": 3250,
      "location": 3251,
      "criminal": 3252,
      "cousin": 3253,
      "attorney": 3254,
      "aunt": 3255,
      "cise": 3256,
      "jap": 3257,
      "loud": 3258,
      "rant": 3259,
      "slo": 3260,
      "ud": 3261,
      "social": 3262,
      "united": 3263,
      "ami": 3264,
      "trace": 3265,
      "ives": 3266,
      "papa": 3267,
      "funeral": 3268,
      "dancing": 3269,
      "invited": 3270,
      "session": 3271,
      "bid": 3272,
      "dor": 3273,
      "dating": 3274,
      "dumb": 3275,
      "fal": 3276,
      "kim": 3277,
      "sca": 3278,
      "stan": 3279,
      "although": 3280,
      "tian": 3281,
      "amount": 3282,
      "letters": 3283,
      "served": 3284,
      "stayed": 3285,
      "vili": 3286,
      "border": 3287,
      "gging": 3288,
      "victi": 3289,
      "opin": 3290,
      "sunday": 3291,
      "capable": 3292,
      "commander": 3293,
      "kicked": 3294,
      "suicide": 3295,
      "gut": 3296,
      "rit": 3297,
      "switch": 3298,
      "inct": 3299,
      "saving": 3300,
      "indic": 3301,
      "failed": 3302,
      "phil": 3303,
      "planned": 3304,
      "contain": 3305,
      "giant": 3306,
      "director": 3307,
      "woods": 3308,
      "regard": 3309,
      "apologize": 3310,
      "dna": 3311,
      "lind": 3312,
      "ops": 3313,
      "tan": 3314,
      "ato": 3315,
      "leep": 3316,
      "andre": 3317,
      "asleep": 3318,
      "formed": 3319,
      "cooper": 3320,
      "ability": 3321,
      "tex": 3322,
      "cases": 3323,
      "pol": 3324,
      "grat": 3325,
      "bucks": 3326,
      "truly": 3327,
      "create": 3328,
      "via": 3329,
      "crit": 3330,
      "dealing": 3331,
      "incess": 3332,
      "paint": 3333,
      "property": 3334,
      "birds": 3335,
      "details": 3336,
      "bite": 3337,
      "gers": 3338,
      "lun": 3339,
      "lake": 3340,
      "py": 3341,
      "rush": 3342,
      "assa": 3343,
      "kes": 3344,
      "rose": 3345,
      "afri": 3346,
      "shadow": 3347,
      "survi": 3348,
      "singing": 3349,
      "brings": 3350,
      "cali": 3351,
      "curi": 3352,
      "centu": 3353,
      "appears": 3354,
      "pieces": 3355,
      "selling": 3356,
      "distri": 3357,
      "distur": 3358,
      "fingers": 3359,
      "received": 3360,
      "victims": 3361,
      "cig": 3362,
      "cul": 3363,
      "vam": 3364,
      "ware": 3365,
      "argu": 3366,
      "aches": 3367,
      "button": 3368,
      "reality": 3369,
      "rooms": 3370,
      "angel": 3371,
      "wins": 3372,
      "games": 3373,
      "current": 3374,
      "drinks": 3375,
      "option": 3376,
      "screw": 3377,
      "based": 3378,
      "communic": 3379,
      "ounce": 3380,
      "including": 3381,
      "cheese": 3382,
      "amy": 3383,
      "sna": 3384,
      "analy": 3385,
      "ander": 3386,
      "ashed": 3387,
      "acle": 3388,
      "cos": 3389,
      "whenever": 3390,
      "spring": 3391,
      "shock": 3392,
      "handsome": 3393,
      "tors": 3394,
      "dressed": 3395,
      "hardly": 3396,
      "opened": 3397,
      "logical": 3398,
      "tommy": 3399,
      "robber": 3400,
      "circle": 3401,
      "mirror": 3402,
      "continu": 3403,
      "deserve": 3404,
      "community": 3405,
      "deliver": 3406,
      "regular": 3407,
      "speech": 3408,
      "regret": 3409,
      "bie": 3410,
      "cult": 3411,
      "fought": 3412,
      "oil": 3413,
      "towards": 3414,
      "weather": 3415,
      "betray": 3416,
      "abandon": 3417,
      "ira": 3418,
      "mayor": 3419,
      "marks": 3420,
      "brown": 3421,
      "discovered": 3422,
      "former": 3423,
      "incident": 3424,
      "billy": 3425,
      "perfectly": 3426,
      "counter": 3427,
      "bobby": 3428,
      "expensive": 3429,
      "strength": 3430,
      "\"...": 3431,
      "ava": 3432,
      "eper": 3433,
      "scan": 3434,
      "whis": 3435,
      "liber": 3436,
      "tire": 3437,
      "ryan": 3438,
      "butter": 3439,
      "guar": 3440,
      "scare": 3441,
      "spell": 3442,
      "civili": 3443,
      "gods": 3444,
      "creep": 3445,
      "airport": 3446,
      "murde": 3447,
      "invite": 3448,
      "johnny": 3449,
      "returned": 3450,
      "period": 3451,
      "connection": 3452,
      "style": 3453,
      "assume": 3454,
      "washing": 3455,
      "nuts": 3456,
      "bone": 3457,
      "ji": 3458,
      "anci": 3459,
      "sequ": 3460,
      "wire": 3461,
      "loss": 3462,
      "tern": 3463,
      "wolf": 3464,
      "qual": 3465,
      "tail": 3466,
      "princess": 3467,
      "monster": 3468,
      "disease": 3469,
      "audi": 3470,
      "vote": 3471,
      "lence": 3472,
      "introduce": 3473,
      "schedu": 3474,
      "incredible": 3475,
      "lonely": 3476,
      ".,": 3477,
      "ears": 3478,
      "fy": 3479,
      "piss": 3480,
      "tha": 3481,
      "revenge": 3482,
      "theory": 3483,
      "sey": 3484,
      "season": 3485,
      "habit": 3486,
      "advant": 3487,
      "pete": 3488,
      "ilities": 3489,
      "fav": 3490,
      "map": 3491,
      "forest": 3492,
      "firm": 3493,
      "carl": 3494,
      "trees": 3495,
      "england": 3496,
      "began": 3497,
      "positive": 3498,
      "streets": 3499,
      "connect": 3500,
      "techno": 3501,
      "members": 3502,
      "convinc": 3503,
      "sacri": 3504,
      "nurse": 3505,
      "desperate": 3506,
      "bun": 3507,
      "bour": 3508,
      "ffe": 3509,
      "jan": 3510,
      "nam": 3511,
      "pup": 3512,
      "rare": 3513,
      "site": 3514,
      "tend": 3515,
      "tiny": 3516,
      "docu": 3517,
      "rie": 3518,
      "icking": 3519,
      "chic": 3520,
      "iron": 3521,
      "mob": 3522,
      "defe": 3523,
      "consc": 3524,
      "compet": 3525,
      "disappoint": 3526,
      "sooner": 3527,
      "fortune": 3528,
      "burned": 3529,
      "nearly": 3530,
      "eventually": 3531,
      "health": 3532,
      "example": 3533,
      "execut": 3534,
      "citiz": 3535,
      "bones": 3536,
      "files": 3537,
      "santa": 3538,
      "toast": 3539,
      "goin": 3540,
      "chat": 3541,
      "trade": 3542,
      "trapp": 3543,
      "progress": 3544,
      "stomach": 3545,
      "finds": 3546,
      "surely": 3547,
      "disappeared": 3548,
      "hired": 3549,
      "gather": 3550,
      "boring": 3551,
      "secrets": 3552,
      "screwed": 3553,
      "expected": 3554,
      "brilli": 3555,
      "attacked": 3556,
      "ticket": 3557,
      "soldier": 3558,
      "castle": 3559,
      "devil": 3560,
      "martin": 3561,
      "relig": 3562,
      "illegal": 3563,
      "indeed": 3564,
      "murderer": 3565,
      "brilliant": 3566,
      "jake": 3567,
      "nan": 3568,
      "range": 3569,
      "insur": 3570,
      "represent": 3571,
      "mend": 3572,
      "robert": 3573,
      "loy": 3574,
      "vert": 3575,
      "knowled": 3576,
      "posed": 3577,
      "mmm": 3578,
      "understanding": 3579,
      "insane": 3580,
      "grandfather": 3581,
      "value": 3582,
      "humans": 3583,
      "factory": 3584,
      "transfer": 3585,
      "langu": 3586,
      "thousands": 3587,
      "princi": 3588,
      "journey": 3589,
      "society": 3590,
      "character": 3591,
      "conscious": 3592,
      "bby": 3593,
      "cil": 3594,
      "dun": 3595,
      "gger": 3596,
      "ieve": 3597,
      "mul": 3598,
      "sses": 3599,
      "tun": 3600,
      "zi": 3601,
      "anda": 3602,
      "doin": 3603,
      "wil": 3604,
      "nder": 3605,
      "scient": 3606,
      "affect": 3607,
      "grate": 3608,
      "strang": 3609,
      "mommy": 3610,
      "committed": 3611,
      "signed": 3612,
      "collect": 3613,
      "circum": 3614,
      "satur": 3615,
      "clark": 3616,
      "eggs": 3617,
      "bass": 3618,
      "bread": 3619,
      "fate": 3620,
      "oce": 3621,
      "associ": 3622,
      "enem": 3623,
      "goti": 3624,
      "alco": 3625,
      "kevin": 3626,
      "roger": 3627,
      "negoti": 3628,
      "manager": 3629,
      "exper": 3630,
      "rage": 3631,
      "puts": 3632,
      "shots": 3633,
      "carol": 3634,
      "runs": 3635,
      "motherfuck": 3636,
      "jobs": 3637,
      "opening": 3638,
      "bedroom": 3639,
      "madam": 3640,
      "sisters": 3641,
      "traum": 3642,
      "screen": 3643,
      "gentleman": 3644,
      "stealing": 3645,
      "fancy": 3646,
      "silver": 3647,
      "loyal": 3648,
      "fright": 3649,
      "gus": 3650,
      "jess": 3651,
      "link": 3652,
      "tank": 3653,
      "veh": 3654,
      "leon": 3655,
      "beha": 3656,
      "rog": 3657,
      "tip": 3658,
      "lyn": 3659,
      "therap": 3660,
      "romantic": 3661,
      "foo": 3662,
      "foll": 3663,
      "span": 3664,
      "warri": 3665,
      "doctors": 3666,
      "bio": 3667,
      "square": 3668,
      "healthy": 3669,
      "physical": 3670,
      "responsibility": 3671,
      "opinion": 3672,
      "ancient": 3673,
      "enemies": 3674,
      "iam": 3675,
      "pure": 3676,
      "rings": 3677,
      "tw": 3678,
      "vit": 3679,
      "xic": 3680,
      "attempt": 3681,
      "meth": 3682,
      "educ": 3683,
      "alarm": 3684,
      "libr": 3685,
      "forces": 3686,
      "tied": 3687,
      "odd": 3688,
      "wanting": 3689,
      "trap": 3690,
      "igno": 3691,
      "lap": 3692,
      "maid": 3693,
      "assass": 3694,
      "charges": 3695,
      "hunt": 3696,
      "brian": 3697,
      "guards": 3698,
      "punish": 3699,
      "students": 3700,
      "familiar": 3701,
      "medicine": 3702,
      "ashamed": 3703,
      "intellig": 3704,
      "advantage": 3705,
      "favour": 3706,
      "behavi": 3707,
      "bis": 3708,
      "dd": 3709,
      "dust": 3710,
      "kne": 3711,
      "punch": 3712,
      "thetic": 3713,
      "mel": 3714,
      "asy": 3715,
      "union": 3716,
      "dece": 3717,
      "ura": 3718,
      "indian": 3719,
      "plate": 3720,
      "previously": 3721,
      "ilar": 3722,
      "caused": 3723,
      "spaper": 3724,
      "newspaper": 3725,
      "badly": 3726,
      "swim": 3727,
      "crowd": 3728,
      "data": 3729,
      "guarante": 3730,
      "bly": 3731,
      "revol": 3732,
      "meal": 3733,
      "itch": 3734,
      "itions": 3735,
      "staff": 3736,
      "lower": 3737,
      "cow": 3738,
      "chine": 3739,
      "model": 3740,
      "pocket": 3741,
      "whore": 3742,
      "exchange": 3743,
      "woke": 3744,
      "iest": 3745,
      "itty": 3746,
      "ets": 3747,
      "ruined": 3748,
      "stein": 3749,
      "doors": 3750,
      "drown": 3751,
      "buying": 3752,
      "valu": 3753,
      "falling": 3754,
      "brief": 3755,
      "liter": 3756,
      "glasses": 3757,
      "virgin": 3758,
      "arrange": 3759,
      "confirm": 3760,
      "split": 3761,
      "source": 3762,
      "iry": 3763,
      "ox": 3764,
      "rise": 3765,
      "rep": 3766,
      "replace": 3767,
      "stink": 3768,
      "wet": 3769,
      "ache": 3770,
      "coat": 3771,
      "butt": 3772,
      "trash": 3773,
      "chem": 3774,
      "march": 3775,
      "waited": 3776,
      "asks": 3777,
      "answers": 3778,
      "obvious": 3779,
      "resist": 3780,
      "changes": 3781,
      "confused": 3782,
      "flash": 3783,
      "scott": 3784,
      "football": 3785,
      "offered": 3786,
      "basically": 3787,
      "holiday": 3788,
      "rescue": 3789,
      "saturday": 3790,
      "chinese": 3791,
      "gie": 3792,
      "jon": 3793,
      "lisa": 3794,
      "mare": 3795,
      "nig": 3796,
      "wra": 3797,
      "iti": 3798,
      "steve": 3799,
      "someday": 3800,
      "cel": 3801,
      "thered": 3802,
      "term": 3803,
      "shout": 3804,
      "traf": 3805,
      "sue": 3806,
      "conven": 3807,
      "tax": 3808,
      "laid": 3809,
      "buried": 3810,
      "babies": 3811,
      "shake": 3812,
      "showing": 3813,
      "charles": 3814,
      "photos": 3815,
      "connected": 3816,
      "satis": 3817,
      "treatment": 3818,
      "alien": 3819,
      "issues": 3820,
      "filled": 3821,
      "snake": 3822,
      "russian": 3823,
      "pissed": 3824,
      "repeat": 3825,
      "trapped": 3826,
      "followed": 3827,
      "traffic": 3828,
      "\",": 3829,
      "eld": 3830,
      "gam": 3831,
      "nation": 3832,
      "nia": 3833,
      "tle": 3834,
      "vity": 3835,
      "ador": 3836,
      "sale": 3837,
      "convic": 3838,
      "raised": 3839,
      "cture": 3840,
      "france": 3841,
      "izing": 3842,
      "surround": 3843,
      "sensit": 3844,
      "cutting": 3845,
      "protection": 3846,
      "changing": 3847,
      "faces": 3848,
      "secretary": 3849,
      "ville": 3850,
      "carrying": 3851,
      "appointment": 3852,
      "sneak": 3853,
      "insu": 3854,
      "inspe": 3855,
      "incre": 3856,
      "loe": 3857,
      "cancer": 3858,
      "fection": 3859,
      "shel": 3860,
      "shell": 3861,
      "poten": 3862,
      "whom": 3863,
      "conside": 3864,
      "arts": 3865,
      "express": 3866,
      "prose": 3867,
      "brad": 3868,
      "disgust": 3869,
      "owner": 3870,
      "cris": 3871,
      "grandma": 3872,
      "safety": 3873,
      "passion": 3874,
      "stronger": 3875,
      "bags": 3876,
      "cameras": 3877,
      "growing": 3878,
      "forgotten": 3879,
      "placed": 3880,
      "points": 3881,
      "mystery": 3882,
      "british": 3883,
      "avail": 3884,
      "considered": 3885,
      "kat": 3886,
      "lam": 3887,
      "remove": 3888,
      "section": 3889,
      "ara": 3890,
      "below": 3891,
      "ida": 3892,
      "hop": 3893,
      "coast": 3894,
      "amond": 3895,
      "shield": 3896,
      "diamond": 3897,
      "emily": 3898,
      "duck": 3899,
      "choco": 3900,
      "solve": 3901,
      "scream": 3902,
      "steps": 3903,
      "americans": 3904,
      "suspic": 3905,
      "tickets": 3906,
      "strugg": 3907,
      "capital": 3908,
      "squad": 3909,
      "majest": 3910,
      "mentioned": 3911,
      "hundreds": 3912,
      "depend": 3913,
      "released": 3914,
      "convince": 3915,
      "assistant": 3916,
      "fantastic": 3917,
      "original": 3918,
      "bond": 3919,
      "mile": 3920,
      "pump": 3921,
      "twent": 3922,
      "rely": 3923,
      "reached": 3924,
      "anni": 3925,
      "eric": 3926,
      "ites": 3927,
      "noise": 3928,
      "armed": 3929,
      "beth": 3930,
      "edge": 3931,
      "holes": 3932,
      "notes": 3933,
      "yellow": 3934,
      "cker": 3935,
      "wherever": 3936,
      "spin": 3937,
      "sons": 3938,
      "assing": 3939,
      "shopping": 3940,
      "corn": 3941,
      "tongue": 3942,
      "cares": 3943,
      "setting": 3944,
      "prime": 3945,
      "priest": 3946,
      "checking": 3947,
      "tests": 3948,
      "solid": 3949,
      "awake": 3950,
      "pier": 3951,
      "hidden": 3952,
      "techn": 3953,
      "violence": 3954,
      "recently": 3955,
      "extremely": 3956,
      "knowledge": 3957,
      "language": 3958,
      "grateful": 3959,
      "circumst": 3960,
      "twenty": 3961,
      "aust": 3962,
      "fru": 3963,
      "glo": 3964,
      "hm": 3965,
      "ku": 3966,
      "rate": 3967,
      "uce": 3968,
      "leak": 3969,
      "hal": 3970,
      "chloe": 3971,
      "rights": 3972,
      "shh": 3973,
      "william": 3974,
      "permission": 3975,
      "prov": 3976,
      "presence": 3977,
      "bride": 3978,
      "bury": 3979,
      "assign": 3980,
      "friendly": 3981,
      "penny": 3982,
      "challen": 3983,
      "compli": 3984,
      "highly": 3985,
      "stress": 3986,
      "walls": 3987,
      "brave": 3988,
      "results": 3989,
      "confirmed": 3990,
      "pills": 3991,
      "breathing": 3992,
      "chemical": 3993,
      "mous": 3994,
      "pse": 3995,
      "rust": 3996,
      "tin": 3997,
      "ining": 3998,
      "anne": 3999,
      "llo": 4000,
      "sters": 4001,
      "asant": 4002,
      "liar": 4003,
      "ably": 4004,
      "image": 4005,
      "decl": 4006,
      "conference": 4007,
      "lets": 4008,
      "proced": 4009,
      "pleased": 4010,
      "watched": 4011,
      "corpor": 4012,
      "sigh": 4013,
      "warn": 4014,
      "chase": 4015,
      "norm": 4016,
      "hunting": 4017,
      "drove": 4018,
      "version": 4019,
      "leading": 4020,
      "trail": 4021,
      "cleaning": 4022,
      "offici": 4023,
      "burning": 4024,
      "divorce": 4025,
      "professional": 4026,
      "false": 4027,
      "curious": 4028,
      "technology": 4029,
      "library": 4030,
      "available": 4031,
      "aver": 4032,
      "gall": 4033,
      "jor": 4034,
      "skills": 4035,
      "youn": 4036,
      "beast": 4037,
      "asc": 4038,
      "holly": 4039,
      "loving": 4040,
      "oken": 4041,
      "adv": 4042,
      "mood": 4043,
      "ents": 4044,
      "istan": 4045,
      "scary": 4046,
      "spare": 4047,
      "moves": 4048,
      "senator": 4049,
      "attend": 4050,
      "winter": 4051,
      "hug": 4052,
      "treated": 4053,
      "witnes": 4054,
      "related": 4055,
      "covering": 4056,
      "temper": 4057,
      "governor": 4058,
      "approach": 4059,
      "concern": 4060,
      "memories": 4061,
      "kyle": 4062,
      "rachel": 4063,
      "reports": 4064,
      "francis": 4065,
      "garden": 4066,
      "assault": 4067,
      "cigare": 4068,
      "insurance": 4069,
      "majesty": 4070,
      "tall": 4071,
      "rey": 4072,
      "reve": 4073,
      "becoming": 4074,
      "acqu": 4075,
      "forms": 4076,
      "yourselves": 4077,
      "useless": 4078,
      "ppy": 4079,
      "tooth": 4080,
      "shape": 4081,
      "player": 4082,
      "viol": 4083,
      "surface": 4084,
      "walter": 4085,
      "easily": 4086,
      "touched": 4087,
      "billion": 4088,
      "statement": 4089,
      "appropri": 4090,
      "council": 4091,
      "patients": 4092,
      "champion": 4093,
      "route": 4094,
      "bage": 4095,
      "rab": 4096,
      "sie": 4097,
      "yu": 4098,
      "tho": 4099,
      "alo": 4100,
      "ambul": 4101,
      "cave": 4102,
      "sucks": 4103,
      "excell": 4104,
      "brand": 4105,
      "cheap": 4106,
      "mostly": 4107,
      "mighty": 4108,
      "function": 4109,
      "courage": 4110,
      "chose": 4111,
      "smith": 4112,
      "harder": 4113,
      "cycle": 4114,
      "internet": 4115,
      "laws": 4116,
      "horses": 4117,
      "pulling": 4118,
      "learning": 4119,
      "screaming": 4120,
      "elev": 4121,
      "official": 4122,
      "score": 4123,
      "actions": 4124,
      "depends": 4125,
      "federal": 4126,
      "breathe": 4127,
      "develop": 4128,
      "district": 4129,
      "multi": 4130,
      "ell": 4131,
      "kate": 4132,
      "pir": 4133,
      "swing": 4134,
      "task": 4135,
      "zone": 4136,
      "relat": 4137,
      "beating": 4138,
      "aside": 4139,
      "actor": 4140,
      "agon": 4141,
      "istic": 4142,
      "gray": 4143,
      "grew": 4144,
      "shoe": 4145,
      "clay": 4146,
      "surve": 4147,
      "crush": 4148,
      "craw": 4149,
      "borrow": 4150,
      "crimes": 4151,
      "millions": 4152,
      "begins": 4153,
      "officers": 4154,
      "burst": 4155,
      "flag": 4156,
      "events": 4157,
      "quarter": 4158,
      "behavior": 4159,
      "chocolate": 4160,
      "bble": 4161,
      "cart": 4162,
      "fits": 4163,
      "ires": 4164,
      "pac": 4165,
      "tast": 4166,
      "vine": 4167,
      "vil": 4168,
      "thom": 4169,
      "thief": 4170,
      "web": 4171,
      "cole": 4172,
      "advent": 4173,
      "motor": 4174,
      "comb": 4175,
      "commend": 4176,
      "perform": 4177,
      "fold": 4178,
      "proceed": 4179,
      "ulation": 4180,
      "ased": 4181,
      "matt": 4182,
      "ization": 4183,
      "chosen": 4184,
      "sessed": 4185,
      "treasure": 4186,
      "insist": 4187,
      "exciting": 4188,
      "garage": 4189,
      "distance": 4190,
      "basement": 4191,
      "miracle": 4192,
      "dragon": 4193,
      "quarters": 4194,
      "guests": 4195,
      "transport": 4196,
      "suffer": 4197,
      "successful": 4198,
      "custody": 4199,
      "neighborhood": 4200,
      "sensitive": 4201,
      "sighs": 4202,
      "mall": 4203,
      "nis": 4204,
      "tum": 4205,
      "thri": 4206,
      "toy": 4207,
      "stake": 4208,
      "vegas": 4209,
      "active": 4210,
      "rip": 4211,
      "sometime": 4212,
      "thern": 4213,
      "dean": 4214,
      "terms": 4215,
      "seek": 4216,
      "agne": 4217,
      "condu": 4218,
      "congrat": 4219,
      "percent": 4220,
      "spoken": 4221,
      "happiness": 4222,
      "downstairs": 4223,
      "mistakes": 4224,
      "nightmare": 4225,
      "luke": 4226,
      "monday": 4227,
      "clever": 4228,
      "writer": 4229,
      "hire": 4230,
      "senior": 4231,
      "compan": 4232,
      "license": 4233,
      "reasons": 4234,
      "solution": 4235,
      "brains": 4236,
      "direction": 4237,
      "agreement": 4238,
      "virus": 4239,
      "product": 4240,
      "belongs": 4241,
      "slip": 4242,
      "christian": 4243,
      "creatures": 4244,
      "sports": 4245,
      "bleeding": 4246,
      "spanish": 4247,
      "challenge": 4248,
      "blast": 4249,
      "ered": 4250,
      "gig": 4251,
      "jason": 4252,
      "junk": 4253,
      "kins": 4254,
      "lack": 4255,
      "pink": 4256,
      "pity": 4257,
      "reput": 4258,
      "measure": 4259,
      "sean": 4260,
      "ena": 4261,
      "haw": 4262,
      "geon": 4263,
      "coinc": 4264,
      "nest": 4265,
      "managed": 4266,
      "indust": 4267,
      "agency": 4268,
      "fuel": 4269,
      "helps": 4270,
      "buck": 4271,
      "attitude": 4272,
      "winning": 4273,
      "damned": 4274,
      "syn": 4275,
      "higher": 4276,
      "bike": 4277,
      "fallen": 4278,
      "staring": 4279,
      "terrific": 4280,
      "passing": 4281,
      "univers": 4282,
      "searching": 4283,
      "agents": 4284,
      "darkness": 4285,
      "slowly": 4286,
      "popular": 4287,
      "jerry": 4288,
      "celebrate": 4289,
      "shift": 4290,
      "ocean": 4291,
      "motherfucker": 4292,
      "',": 4293,
      "bart": 4294,
      "eving": 4295,
      "mun": 4296,
      "vul": 4297,
      "inn": 4298,
      "online": 4299,
      "asse": 4300,
      "eddie": 4301,
      "enced": 4302,
      "chasing": 4303,
      "abby": 4304,
      "determin": 4305,
      "worm": 4306,
      "predic": 4307,
      "precious": 4308,
      "launch": 4309,
      "partners": 4310,
      "mates": 4311,
      "trigger": 4312,
      "jury": 4313,
      "object": 4314,
      "moments": 4315,
      "campa": 4316,
      "kore": 4317,
      "volun": 4318,
      "occas": 4319,
      "clients": 4320,
      "result": 4321,
      "jacket": 4322,
      "wishes": 4323,
      "vacation": 4324,
      "central": 4325,
      "material": 4326,
      "potential": 4327,
      "congratul": 4328,
      "bump": 4329,
      "fash": 4330,
      "hits": 4331,
      "tag": 4332,
      "zard": 4333,
      "meter": 4334,
      "itation": 4335,
      "stro": 4336,
      "secure": 4337,
      "leo": 4338,
      "ald": 4339,
      "lia": 4340,
      "hoo": 4341,
      "cot": 4342,
      "sales": 4343,
      "aging": 4344,
      "prevent": 4345,
      "sphere": 4346,
      "talks": 4347,
      "dia": 4348,
      "believes": 4349,
      "lesson": 4350,
      "county": 4351,
      "winner": 4352,
      "charged": 4353,
      "craft": 4354,
      "genius": 4355,
      "sweat": 4356,
      "versary": 4357,
      "facts": 4358,
      "royal": 4359,
      "throwing": 4360,
      "hypo": 4361,
      "spending": 4362,
      "addic": 4363,
      "considering": 4364,
      "basket": 4365,
      "loaded": 4366,
      "pussy": 4367,
      "journal": 4368,
      "convinced": 4369,
      "appropriate": 4370,
      "cti": 4371,
      "attract": 4372,
      "ides": 4373,
      "rocks": 4374,
      "outta": 4375,
      "unusual": 4376,
      "debt": 4377,
      "pel": 4378,
      "nah": 4379,
      "pla": 4380,
      "provide": 4381,
      "math": 4382,
      "standard": 4383,
      "estab": 4384,
      "studying": 4385,
      "clin": 4386,
      "warrant": 4387,
      "drew": 4388,
      "smoking": 4389,
      "stranger": 4390,
      "stern": 4391,
      "patch": 4392,
      "custom": 4393,
      "riding": 4394,
      "laughter": 4395,
      "tube": 4396,
      "photograph": 4397,
      "robin": 4398,
      "occur": 4399,
      "arrang": 4400,
      "possibility": 4401,
      "settled": 4402,
      "mountains": 4403,
      "califor": 4404,
      "expert": 4405,
      "vehicle": 4406,
      "fruit": 4407,
      "ambulance": 4408,
      "dated": 4409,
      "ik": 4410,
      "muse": 4411,
      "mig": 4412,
      "sque": 4413,
      "tay": 4414,
      "tab": 4415,
      "resid": 4416,
      "anno": 4417,
      "ita": 4418,
      "domin": 4419,
      "dozen": 4420,
      "ider": 4421,
      "role": 4422,
      "adult": 4423,
      "someplace": 4424,
      "fever": 4425,
      "shine": 4426,
      "sail": 4427,
      "constru": 4428,
      "commission": 4429,
      "pers": 4430,
      "offense": 4431,
      "scrat": 4432,
      "bran": 4433,
      "laun": 4434,
      "cheer": 4435,
      "jose": 4436,
      "foreign": 4437,
      "dio": 4438,
      "species": 4439,
      "phones": 4440,
      "cloud": 4441,
      "surre": 4442,
      "jean": 4443,
      "chain": 4444,
      "tempor": 4445,
      "judg": 4446,
      "protecting": 4447,
      "claire": 4448,
      "suffering": 4449,
      "kissed": 4450,
      "separate": 4451,
      "disgusting": 4452,
      "normally": 4453,
      "fashion": 4454,
      "amed": 4455,
      "gab": 4456,
      "hated": 4457,
      "juni": 4458,
      "las": 4459,
      "slight": 4460,
      "refle": 4461,
      "toward": 4462,
      "mechan": 4463,
      "istr": 4464,
      "arthur": 4465,
      "assed": 4466,
      "assure": 4467,
      "liqu": 4468,
      "rice": 4469,
      "oked": 4470,
      "ades": 4471,
      "china": 4472,
      "antly": 4473,
      "moder": 4474,
      "degree": 4475,
      "yep": 4476,
      "sav": 4477,
      "indi": 4478,
      "cons": 4479,
      "exer": 4480,
      "wered": 4481,
      "actual": 4482,
      "brush": 4483,
      "wondered": 4484,
      "monitor": 4485,
      "emma": 4486,
      "intention": 4487,
      "breast": 4488,
      "strate": 4489,
      "prior": 4490,
      "visitor": 4491,
      "decent": 4492,
      "harve": 4493,
      "sexy": 4494,
      "anese": 4495,
      "soup": 4496,
      "simon": 4497,
      "falls": 4498,
      "magaz": 4499,
      "jackson": 4500,
      "confess": 4501,
      "knocked": 4502,
      "occup": 4503,
      "dollar": 4504,
      "teaching": 4505,
      "nonsense": 4506,
      "threatened": 4507,
      "authority": 4508,
      "marty": 4509,
      "champagne": 4510,
      "political": 4511,
      "zero": 4512,
      "candid": 4513,
      "pounds": 4514,
      "century": 4515,
      "footage": 4516,
      "twist": 4517,
      "circumstances": 4518,
      "california": 4519,
      "dge": 4520,
      "jay": 4521,
      "tick": 4522,
      "ull": 4523,
      "remo": 4524,
      "atl": 4525,
      "ening": 4526,
      "envir": 4527,
      "kelly": 4528,
      "costu": 4529,
      "chances": 4530,
      "fest": 4531,
      "pleasant": 4532,
      "explan": 4533,
      "rape": 4534,
      "els": 4535,
      "stops": 4536,
      "bug": 4537,
      "josh": 4538,
      "marine": 4539,
      "pride": 4540,
      "civil": 4541,
      "belief": 4542,
      "handed": 4543,
      "rude": 4544,
      "houses": 4545,
      "stays": 4546,
      "shared": 4547,
      "gib": 4548,
      "freaking": 4549,
      "painful": 4550,
      "similar": 4551,
      "complex": 4552,
      "murders": 4553,
      "invent": 4554,
      "gym": 4555,
      "cooking": 4556,
      "arrive": 4557,
      "remains": 4558,
      "sandwi": 4559,
      "tradition": 4560,
      "silent": 4561,
      "abandoned": 4562,
      "schedule": 4563,
      "intelligence": 4564,
      "younger": 4565,
      "environ": 4566,
      "ckets": 4567,
      "karen": 4568,
      "mask": 4569,
      "sate": 4570,
      "thus": 4571,
      "reward": 4572,
      "metal": 4573,
      "stable": 4574,
      "bered": 4575,
      "golf": 4576,
      "forman": 4577,
      "ups": 4578,
      "nasty": 4579,
      "shy": 4580,
      "bol": 4581,
      "boom": 4582,
      "stopping": 4583,
      "spar": 4584,
      "workers": 4585,
      "chef": 4586,
      "lifetime": 4587,
      "monkey": 4588,
      "pathetic": 4589,
      "greater": 4590,
      "blowing": 4591,
      "movement": 4592,
      "comprom": 4593,
      "hunter": 4594,
      "dawn": 4595,
      "flower": 4596,
      "larry": 4597,
      "midnight": 4598,
      "fleet": 4599,
      "rolling": 4600,
      "laughs": 4601,
      "package": 4602,
      "messing": 4603,
      "booth": 4604,
      "explosive": 4605,
      "escaped": 4606,
      "specific": 4607,
      "television": 4608,
      "mixed": 4609,
      "require": 4610,
      "employe": 4611,
      "negative": 4612,
      "vampire": 4613,
      "robbery": 4614,
      "washington": 4615,
      "disappointed": 4616,
      "anniversary": 4617,
      "campaign": 4618,
      "taylor": 4619,
      "candy": 4620,
      "dess": 4621,
      "dish": 4622,
      "fare": 4623,
      "hitting": 4624,
      "pting": 4625,
      "tte": 4626,
      "stit": 4627,
      "wen": 4628,
      "aries": 4629,
      "becomes": 4630,
      "alter": 4631,
      "alpha": 4632,
      "lily": 4633,
      "lips": 4634,
      "accom": 4635,
      "wives": 4636,
      "core": 4637,
      "abor": 4638,
      "device": 4639,
      "spy": 4640,
      "downtown": 4641,
      "joey": 4642,
      "mud": 4643,
      "maria": 4644,
      "miser": 4645,
      "closet": 4646,
      "hibit": 4647,
      "desire": 4648,
      "steel": 4649,
      "signs": 4650,
      "interrupt": 4651,
      "muscle": 4652,
      "confession": 4653,
      "fixed": 4654,
      "systems": 4655,
      "desert": 4656,
      "balance": 4657,
      "thrown": 4658,
      "relieve": 4659,
      "bullets": 4660,
      "emotional": 4661,
      "nuclear": 4662,
      "literally": 4663,
      "flies": 4664,
      "gorge": 4665,
      "ience": 4666,
      "kn": 4667,
      "influ": 4668,
      "initi": 4669,
      "recommend": 4670,
      "heli": 4671,
      "vels": 4672,
      "bec": 4673,
      "bend": 4674,
      "doo": 4675,
      "admir": 4676,
      "ching": 4677,
      "poet": 4678,
      "sages": 4679,
      "useful": 4680,
      "gues": 4681,
      "trance": 4682,
      "sugar": 4683,
      "blew": 4684,
      "brace": 4685,
      "shoulder": 4686,
      "series": 4687,
      "desp": 4688,
      "sentence": 4689,
      "grandmother": 4690,
      "engage": 4691,
      "leads": 4692,
      "susan": 4693,
      "profile": 4694,
      "worthy": 4695,
      "tues": 4696,
      "privacy": 4697,
      "foolish": 4698,
      "smells": 4699,
      "cakes": 4700,
      "committee": 4701,
      "directly": 4702,
      "oliver": 4703,
      "xico": 4704,
      "pulse": 4705,
      "guarantee": 4706,
      "revolution": 4707,
      "excellent": 4708,
      "junior": 4709,
      "aid": 4710,
      "bible": 4711,
      "dave": 4712,
      "fasc": 4713,
      "hay": 4714,
      "iac": 4715,
      "kay": 4716,
      "kir": 4717,
      "nate": 4718,
      "pad": 4719,
      "tat": 4720,
      "wand": 4721,
      "nope": 4722,
      "noble": 4723,
      "lend": 4724,
      "alert": 4725,
      "icles": 4726,
      "unknown": 4727,
      "ception": 4728,
      "shed": 4729,
      "urt": 4730,
      "posal": 4731,
      "acks": 4732,
      "exit": 4733,
      "precise": 4734,
      "grass": 4735,
      "division": 4736,
      "serving": 4737,
      "matic": 4738,
      "juice": 4739,
      "chamber": 4740,
      "guessing": 4741,
      "lands": 4742,
      "international": 4743,
      "trusted": 4744,
      "eaten": 4745,
      "league": 4746,
      "destru": 4747,
      "destiny": 4748,
      "bail": 4749,
      "garbage": 4750,
      "honour": 4751,
      "enjoying": 4752,
      "crown": 4753,
      "sharp": 4754,
      "survived": 4755,
      "pushed": 4756,
      "violent": 4757,
      "chuckles": 4758,
      "servation": 4759,
      "chicago": 4760,
      "alcohol": 4761,
      "trauma": 4762,
      "method": 4763,
      "officially": 4764,
      "witnesses": 4765,
      "bak": 4766,
      "dum": 4767,
      "hank": 4768,
      "mble": 4769,
      "sink": 4770,
      "attrac": 4771,
      "sele": 4772,
      "ari": 4773,
      "alice": 4774,
      "som": 4775,
      "rier": 4776,
      "mode": 4777,
      "usive": 4778,
      "deput": 4779,
      "navy": 4780,
      "concentr": 4781,
      "artist": 4782,
      "performan": 4783,
      "wol": 4784,
      "scen": 4785,
      "tions": 4786,
      "friendship": 4787,
      "stands": 4788,
      "supp": 4789,
      "kinds": 4790,
      "carefully": 4791,
      "blocks": 4792,
      "parking": 4793,
      "parties": 4794,
      "childhood": 4795,
      "hurting": 4796,
      "pays": 4797,
      "obje": 4798,
      "skull": 4799,
      "viet": 4800,
      "brick": 4801,
      "native": 4802,
      "wallet": 4803,
      "maintain": 4804,
      "salt": 4805,
      "photogra": 4806,
      "joined": 4807,
      "windows": 4808,
      "golden": 4809,
      "network": 4810,
      "refuse": 4811,
      "refused": 4812,
      "detail": 4813,
      "impression": 4814,
      "terrorist": 4815,
      "japanese": 4816,
      "therapy": 4817,
      "determined": 4818,
      "congratulations": 4819,
      "customers": 4820,
      "arranged": 4821,
      "miserable": 4822,
      "gorgeous": 4823,
      "cass": 4824,
      "flor": 4825,
      "joking": 4826,
      "ras": 4827,
      "vig": 4828,
      "removed": 4829,
      "isher": 4830,
      "goal": 4831,
      "lip": 4832,
      "forth": 4833,
      "loser": 4834,
      "advis": 4835,
      "abdu": 4836,
      "nathan": 4837,
      "contest": 4838,
      "foster": 4839,
      "acted": 4840,
      "spit": 4841,
      "spill": 4842,
      "greet": 4843,
      "drain": 4844,
      "lucy": 4845,
      "achieve": 4846,
      "mont": 4847,
      "servant": 4848,
      "lotte": 4849,
      "studio": 4850,
      "tribut": 4851,
      "minds": 4852,
      "charming": 4853,
      "conditions": 4854,
      "signature": 4855,
      "signific": 4856,
      "victor": 4857,
      "fourth": 4858,
      "faced": 4859,
      "tracks": 4860,
      "annie": 4861,
      "sara": 4862,
      "****": 4863,
      "massive": 4864,
      "impressive": 4865,
      "busted": 4866,
      "audience": 4867,
      "warrior": 4868,
      "ignore": 4869,
      "technically": 4870,
      "procedure": 4871,
      "reputation": 4872,
      "coincidence": 4873,
      "explanation": 4874,
      "jun": 4875,
      "mitted": 4876,
      "rear": 4877,
      "mexico": 4878,
      "itive": 4879,
      "helen": 4880,
      "severe": 4881,
      "bee": 4882,
      "behave": 4883,
      "admi": 4884,
      "chip": 4885,
      "somethin": 4886,
      "ambit": 4887,
      "therine": 4888,
      "demo": 4889,
      "deck": 4890,
      "wore": 4891,
      "rail": 4892,
      "proto": 4893,
      "prophe": 4894,
      "acts": 4895,
      "ultim": 4896,
      "helpful": 4897,
      "apple": 4898,
      "frag": 4899,
      "ipment": 4900,
      "publ": 4901,
      "visible": 4902,
      "eva": 4903,
      "hearts": 4904,
      "breaks": 4905,
      "patro": 4906,
      "logist": 4907,
      "victory": 4908,
      "dale": 4909,
      "engaged": 4910,
      "speaks": 4911,
      "humanity": 4912,
      "pilot": 4913,
      "identity": 4914,
      "facility": 4915,
      "response": 4916,
      "flesh": 4917,
      "purse": 4918,
      "radi": 4919,
      "properly": 4920,
      "recei": 4921,
      "succeed": 4922,
      "lawyers": 4923,
      "humili": 4924,
      "bowl": 4925,
      "equipment": 4926,
      "frame": 4927,
      "electri": 4928,
      "employ": 4929,
      "competition": 4930,
      "austral": 4931,
      "museum": 4932,
      "individ": 4933,
      "performance": 4934,
      "cate": 4935,
      "kers": 4936,
      "mam": 4937,
      "nin": 4938,
      "oo": 4939,
      "oke": 4940,
      "tam": 4941,
      "ugh": 4942,
      "wings": 4943,
      "reaction": 4944,
      "belt": 4945,
      "root": 4946,
      "forbid": 4947,
      "icing": 4948,
      "chin": 4949,
      "imate": 4950,
      "degre": 4951,
      "decor": 4952,
      "illance": 4953,
      "guilt": 4954,
      "traction": 4955,
      "ppers": 4956,
      "selfish": 4957,
      "morgan": 4958,
      "carter": 4959,
      "carried": 4960,
      "closing": 4961,
      "mature": 4962,
      "bush": 4963,
      "warned": 4964,
      "jected": 4965,
      "charlotte": 4966,
      "earn": 4967,
      "barry": 4968,
      "licate": 4969,
      "ggy": 4970,
      "vices": 4971,
      "dropping": 4972,
      "deny": 4973,
      "freeze": 4974,
      "ringing": 4975,
      "imagination": 4976,
      "sample": 4977,
      "micro": 4978,
      "tracking": 4979,
      "jumped": 4980,
      "grabbed": 4981,
      "media": 4982,
      "status": 4983,
      "identify": 4984,
      "failure": 4985,
      "silen": 4986,
      "crisis": 4987,
      "advance": 4988,
      "surveillance": 4989,
      "occasion": 4990,
      "judgment": 4991,
      "attractive": 4992,
      "econ": 4993,
      "fab": 4994,
      "furn": 4995,
      "hanna": 4996,
      "ix": 4997,
      "jin": 4998,
      "jones": 4999,
      "oth": 5000,
      "twins": 5001,
      "valley": 5002,
      "rek": 5003,
      "theater": 5004,
      "hears": 5005,
      "kel": 5006,
      "limit": 5007,
      "icy": 5008,
      "chand": 5009,
      "unlike": 5010,
      "mole": 5011,
      "tears": 5012,
      "shor": 5013,
      "conce": 5014,
      "background": 5015,
      "ender": 5016,
      "ulate": 5017,
      "worker": 5018,
      "grey": 5019,
      "estate": 5020,
      "plays": 5021,
      "otic": 5022,
      "obli": 5023,
      "mercy": 5024,
      "traitor": 5025,
      "effort": 5026,
      "collection": 5027,
      "trained": 5028,
      "tub": 5029,
      "boxes": 5030,
      "clue": 5031,
      "privile": 5032,
      "songs": 5033,
      "marrying": 5034,
      "explosion": 5035,
      "dragged": 5036,
      "jerk": 5037,
      "slave": 5038,
      "kissing": 5039,
      "designed": 5040,
      "effects": 5041,
      "wasted": 5042,
      "africa": 5043,
      "inspector": 5044,
      "university": 5045,
      "volunte": 5046,
      "modern": 5047,
      "degrees": 5048,
      "fice": 5049,
      "jung": 5050,
      "mast": 5051,
      "smu": 5052,
      "vince": 5053,
      "youth": 5054,
      "era": 5055,
      "steven": 5056,
      "beloved": 5057,
      "keeper": 5058,
      "idge": 5059,
      "lover": 5060,
      "coordin": 5061,
      "adjust": 5062,
      "chill": 5063,
      "delive": 5064,
      "poem": 5065,
      "cking": 5066,
      "tron": 5067,
      "conspir": 5068,
      "compe": 5069,
      "perman": 5070,
      "couch": 5071,
      "mond": 5072,
      "mony": 5073,
      "cleared": 5074,
      "distract": 5075,
      "intend": 5076,
      "senger": 5077,
      "drey": 5078,
      "germany": 5079,
      "chap": 5080,
      "prize": 5081,
      "barbar": 5082,
      "gene": 5083,
      "messed": 5084,
      "messages": 5085,
      "hopefully": 5086,
      "calcul": 5087,
      "pattern": 5088,
      "miami": 5089,
      "resour": 5090,
      "captured": 5091,
      "jackie": 5092,
      "returning": 5093,
      "legend": 5094,
      "burns": 5095,
      "accused": 5096,
      "valent": 5097,
      "gifts": 5098,
      "counse": 5099,
      "investigate": 5100,
      "aboard": 5101,
      "delicious": 5102,
      "boots": 5103,
      "possession": 5104,
      "costs": 5105,
      "wounds": 5106,
      "louis": 5107,
      "routine": 5108,
      "beneath": 5109,
      "divorced": 5110,
      "thirsty": 5111,
      "random": 5112,
      "document": 5113,
      "defeat": 5114,
      "suspicious": 5115,
      "adventure": 5116,
      "satell": 5117,
      "delivered": 5118,
      ".?": 5119,
      "dive": 5120,
      "gil": 5121,
      "pical": 5122,
      "weed": 5123,
      "arily": 5124,
      "bes": 5125,
      "hammer": 5126,
      "alle": 5127,
      "lion": 5128,
      "aded": 5129,
      "impressed": 5130,
      "cere": 5131,
      "nail": 5132,
      "kingdom": 5133,
      "foc": 5134,
      "bron": 5135,
      "berg": 5136,
      "maker": 5137,
      "clown": 5138,
      "dresses": 5139,
      "string": 5140,
      "figures": 5141,
      "pipe": 5142,
      "ploy": 5143,
      "touching": 5144,
      "uniform": 5145,
      "entertain": 5146,
      "reported": 5147,
      "casual": 5148,
      "announce": 5149,
      "crossed": 5150,
      "production": 5151,
      "panic": 5152,
      "instinct": 5153,
      "sharing": 5154,
      "cabin": 5155,
      "digging": 5156,
      "zoo": 5157,
      "reporter": 5158,
      "germans": 5159,
      "glory": 5160,
      "sacrifice": 5161,
      "citizens": 5162,
      "strangers": 5163,
      "education": 5164,
      "valuable": 5165,
      "elevator": 5166,
      "multiple": 5167,
      "thomas": 5168,
      "hig": 5169,
      "lace": 5170,
      "tes": 5171,
      "wy": 5172,
      "thr": 5173,
      "thou": 5174,
      "anony": 5175,
      "tower": 5176,
      "meters": 5177,
      "isol": 5178,
      "hest": 5179,
      "orange": 5180,
      "leng": 5181,
      "weal": 5182,
      "western": 5183,
      "alan": 5184,
      "liz": 5185,
      "acce": 5186,
      "acade": 5187,
      "ril": 5188,
      "utter": 5189,
      "washed": 5190,
      "unable": 5191,
      "delay": 5192,
      "anytime": 5193,
      "cage": 5194,
      "india": 5195,
      "concl": 5196,
      "inet": 5197,
      "offering": 5198,
      "ila": 5199,
      "tale": 5200,
      "moral": 5201,
      "mortal": 5202,
      "drum": 5203,
      "minor": 5204,
      "brook": 5205,
      "homework": 5206,
      "aud": 5207,
      "blown": 5208,
      "shown": 5209,
      "counting": 5210,
      "wednes": 5211,
      "visited": 5212,
      "commer": 5213,
      "curse": 5214,
      "patience": 5215,
      "sweep": 5216,
      "walker": 5217,
      "cliff": 5218,
      "collea": 5219,
      "timing": 5220,
      "catching": 5221,
      "robbed": 5222,
      "fishing": 5223,
      "fella": 5224,
      "relationships": 5225,
      "techni": 5226,
      "alibi": 5227,
      "delivery": 5228,
      "scienti": 5229,
      "slipped": 5230,
      "unex": 5231,
      "cruel": 5232,
      "collap": 5233,
      "kidnapped": 5234,
      "embarrassed": 5235,
      "wasting": 5236,
      "survival": 5237,
      "argument": 5238,
      "iraq": 5239,
      "liberty": 5240,
      "scientists": 5241,
      "temperature": 5242,
      "magazine": 5243,
      "aah": 5244,
      "bars": 5245,
      "ez": 5246,
      "kicking": 5247,
      "pian": 5248,
      "ration": 5249,
      "sno": 5250,
      "swit": 5251,
      "tone": 5252,
      "vation": 5253,
      "thick": 5254,
      "independ": 5255,
      "review": 5256,
      "retire": 5257,
      "atmo": 5258,
      "org": 5259,
      "sec": 5260,
      "levels": 5261,
      "argue": 5262,
      "beard": 5263,
      "entrance": 5264,
      "escor": 5265,
      "loan": 5266,
      "admin": 5267,
      "advan": 5268,
      "neath": 5269,
      "deposit": 5270,
      "pope": 5271,
      "manip": 5272,
      "sors": 5273,
      "whoo": 5274,
      "bored": 5275,
      "agger": 5276,
      "congress": 5277,
      "umn": 5278,
      "fairy": 5279,
      "brut": 5280,
      "ults": 5281,
      "bern": 5282,
      "cheating": 5283,
      "grid": 5284,
      "angle": 5285,
      "diag": 5286,
      "underneath": 5287,
      "bitter": 5288,
      "blade": 5289,
      "pardon": 5290,
      "kenny": 5291,
      "patrick": 5292,
      "policy": 5293,
      "awk": 5294,
      "confidence": 5295,
      "locker": 5296,
      "bills": 5297,
      "legit": 5298,
      "ttes": 5299,
      "unique": 5300,
      "struck": 5301,
      "flew": 5302,
      "prisoner": 5303,
      "strip": 5304,
      "entirely": 5305,
      "deserves": 5306,
      "smooth": 5307,
      "assuming": 5308,
      "feeding": 5309,
      "flip": 5310,
      "channel": 5311,
      "gradu": 5312,
      "injury": 5313,
      "linda": 5314,
      "african": 5315,
      "punishment": 5316,
      "remote": 5317,
      "tuesday": 5318,
      "permanent": 5319,
      "scientific": 5320,
      "aim": 5321,
      "easter": 5322,
      "lane": 5323,
      "mbered": 5324,
      "uro": 5325,
      "infect": 5326,
      "tol": 5327,
      "heh": 5328,
      "lemon": 5329,
      "aron": 5330,
      "beam": 5331,
      "soph": 5332,
      "lif": 5333,
      "accur": 5334,
      "rig": 5335,
      "homer": 5336,
      "homic": 5337,
      "coward": 5338,
      "tips": 5339,
      "tific": 5340,
      "yelling": 5341,
      "pow": 5342,
      "plants": 5343,
      "exha": 5344,
      "igning": 5345,
      "afterwards": 5346,
      "lucas": 5347,
      "believ": 5348,
      "believing": 5349,
      "realise": 5350,
      "cared": 5351,
      "owned": 5352,
      "dylan": 5353,
      "finan": 5354,
      "crus": 5355,
      "dealer": 5356,
      "latest": 5357,
      "evac": 5358,
      "interrup": 5359,
      "cats": 5360,
      "skip": 5361,
      "cuff": 5362,
      "stretch": 5363,
      "johnson": 5364,
      "effe": 5365,
      "burg": 5366,
      "apology": 5367,
      "practically": 5368,
      "instit": 5369,
      "dirt": 5370,
      "decisions": 5371,
      "extraordinary": 5372,
      "frozen": 5373,
      "specif": 5374,
      "emotions": 5375,
      "politics": 5376,
      "pointing": 5377,
      "description": 5378,
      "embarrassing": 5379,
      "japan": 5380,
      "texas": 5381,
      "religion": 5382,
      "frightened": 5383,
      "jordan": 5384,
      "clinic": 5385,
      "annoying": 5386,
      "sandwich": 5387,
      "accompl": 5388,
      "deputy": 5389,
      "silence": 5390,
      "egy": 5391,
      "fence": 5392,
      "fried": 5393,
      "gic": 5394,
      "ike": 5395,
      "imed": 5396,
      "jar": 5397,
      "shave": 5398,
      "sday": 5399,
      "tent": 5400,
      "tissue": 5401,
      "thouse": 5402,
      "inated": 5403,
      "repair": 5404,
      "itar": 5405,
      "stun": 5406,
      "seed": 5407,
      "whist": 5408,
      "entered": 5409,
      "rod": 5410,
      "rowed": 5411,
      "hostage": 5412,
      "arer": 5413,
      "motive": 5414,
      "imum": 5415,
      "feather": 5416,
      "dee": 5417,
      "posing": 5418,
      "trunk": 5419,
      "fulf": 5420,
      "joint": 5421,
      "mister": 5422,
      "empire": 5423,
      "disco": 5424,
      "supreme": 5425,
      "surgeon": 5426,
      "choices": 5427,
      "centre": 5428,
      "teddy": 5429,
      "solved": 5430,
      "oppos": 5431,
      "italian": 5432,
      "profit": 5433,
      "images": 5434,
      "drawn": 5435,
      "enterpr": 5436,
      "jesse": 5437,
      "laying": 5438,
      "palace": 5439,
      "investigating": 5440,
      "banks": 5441,
      "heroes": 5442,
      "bombs": 5443,
      "pushing": 5444,
      "kilo": 5445,
      "troops": 5446,
      "mistak": 5447,
      "electric": 5448,
      "script": 5449,
      "fifth": 5450,
      "narrow": 5451,
      "critic": 5452,
      "creepy": 5453,
      "principal": 5454,
      "elder": 5455,
      "squee": 5456,
      "exercise": 5457,
      "despite": 5458,
      "award": 5459,
      "cad": 5460,
      "dough": 5461,
      "dates": 5462,
      "fus": 5463,
      "jet": 5464,
      "mouse": 5465,
      "pon": 5466,
      "sper": 5467,
      "sins": 5468,
      "anx": 5469,
      "toes": 5470,
      "ller": 5471,
      "iso": 5472,
      "height": 5473,
      "stic": 5474,
      "weigh": 5475,
      "sole": 5476,
      "aces": 5477,
      "oker": 5478,
      "abs": 5479,
      "units": 5480,
      "anton": 5481,
      "imony": 5482,
      "justin": 5483,
      "odds": 5484,
      "sheep": 5485,
      "urgent": 5486,
      "hers": 5487,
      "saur": 5488,
      "illa": 5489,
      "guide": 5490,
      "suffe": 5491,
      "plum": 5492,
      "consequ": 5493,
      "backup": 5494,
      "exception": 5495,
      "cts": 5496,
      "istent": 5497,
      "gran": 5498,
      "tyler": 5499,
      "dial": 5500,
      "mini": 5501,
      "ruth": 5502,
      "hip": 5503,
      "penal": 5504,
      "august": 5505,
      "pretending": 5506,
      "applic": 5507,
      "formal": 5508,
      "interrog": 5509,
      "patri": 5510,
      "daw": 5511,
      "ballo": 5512,
      "madame": 5513,
      "election": 5514,
      "territory": 5515,
      "terrified": 5516,
      "colour": 5517,
      "cells": 5518,
      "doub": 5519,
      "spirits": 5520,
      "joining": 5521,
      "experiment": 5522,
      "ensive": 5523,
      "parker": 5524,
      "computers": 5525,
      "slide": 5526,
      "prayer": 5527,
      "reminds": 5528,
      "authorities": 5529,
      "wounded": 5530,
      "julia": 5531,
      "affairs": 5532,
      "bruce": 5533,
      "limited": 5534,
      "marshall": 5535,
      "reckon": 5536,
      "scale": 5537,
      "average": 5538,
      "establish": 5539,
      "joseph": 5540,
      "costume": 5541,
      "smugg": 5542,
      "effective": 5543,
      "bb": 5544,
      "bou": 5545,
      "bin": 5546,
      "gates": 5547,
      "ln": 5548,
      "pson": 5549,
      "rang": 5550,
      "wrest": 5551,
      "wrap": 5552,
      "inner": 5553,
      "informed": 5554,
      "refer": 5555,
      "thee": 5556,
      "toss": 5557,
      "toler": 5558,
      "mexic": 5559,
      "nothin": 5560,
      "stall": 5561,
      "stones": 5562,
      "seal": 5563,
      "arrow": 5564,
      "belle": 5565,
      "belly": 5566,
      "ashes": 5567,
      "dome": 5568,
      "aller": 5569,
      "soo": 5570,
      "accent": 5571,
      "essen": 5572,
      "gear": 5573,
      "ads": 5574,
      "irish": 5575,
      "molly": 5576,
      "amanda": 5577,
      "deed": 5578,
      "urally": 5579,
      "worn": 5580,
      "aint": 5581,
      "article": 5582,
      "exists": 5583,
      "goodness": 5584,
      "propose": 5585,
      "pred": 5586,
      "prescri": 5587,
      "scor": 5588,
      "bure": 5589,
      "mari": 5590,
      "marcus": 5591,
      "marked": 5592,
      "drank": 5593,
      "lux": 5594,
      "phan": 5595,
      "discover": 5596,
      "shawn": 5597,
      "fract": 5598,
      "remembered": 5599,
      "lessons": 5600,
      "parole": 5601,
      "julie": 5602,
      "symp": 5603,
      "ashing": 5604,
      "frequ": 5605,
      "reasonable": 5606,
      "halfway": 5607,
      "cured": 5608,
      "souls": 5609,
      "worrying": 5610,
      "starving": 5611,
      "protected": 5612,
      "magical": 5613,
      "subst": 5614,
      "facing": 5615,
      "cleaned": 5616,
      "operate": 5617,
      "classic": 5618,
      "temple": 5619,
      "respond": 5620,
      "surprising": 5621,
      "strict": 5622,
      "ibly": 5623,
      "approve": 5624,
      "beaten": 5625,
      "circus": 5626,
      "produce": 5627,
      "traveling": 5628,
      "install": 5629,
      "assumed": 5630,
      "bothering": 5631,
      "hooked": 5632,
      "sucker": 5633,
      "frog": 5634,
      "jenny": 5635,
      "russians": 5636,
      "developed": 5637,
      "dumped": 5638,
      "claims": 5639,
      "fifty": 5640,
      "andrew": 5641,
      "documents": 5642,
      "citizen": 5643,
      "hollywood": 5644,
      "becca": 5645,
      "admiral": 5646,
      "conspiracy": 5647,
      "anonymous": 5648,
      "opposite": 5649,
      "suffered": 5650,
      "aun": 5651,
      "lum": 5652,
      "ome": 5653,
      "pile": 5654,
      "piz": 5655,
      "swall": 5656,
      "retreat": 5657,
      "veget": 5658,
      "sear": 5659,
      "edward": 5660,
      "goss": 5661,
      "dock": 5662,
      "socks": 5663,
      "robot": 5664,
      "acity": 5665,
      "outs": 5666,
      "donna": 5667,
      "uncomfortable": 5668,
      "improve": 5669,
      "fee": 5670,
      "derek": 5671,
      "terry": 5672,
      "wayne": 5673,
      "suits": 5674,
      "boot": 5675,
      "proved": 5676,
      "proposal": 5677,
      "cting": 5678,
      "scram": 5679,
      "gren": 5680,
      "mort": 5681,
      "ishing": 5682,
      "monk": 5683,
      "monsters": 5684,
      "serial": 5685,
      "bits": 5686,
      "audrey": 5687,
      "tons": 5688,
      "duke": 5689,
      "blan": 5690,
      "classes": 5691,
      "fund": 5692,
      "cution": 5693,
      "drives": 5694,
      "obsessed": 5695,
      "doug": 5696,
      "frankie": 5697,
      "experienced": 5698,
      "packed": 5699,
      "punished": 5700,
      "recognized": 5701,
      "humor": 5702,
      "jokes": 5703,
      "rotten": 5704,
      "freaked": 5705,
      "sacred": 5706,
      "mysterious": 5707,
      "injured": 5708,
      "thursday": 5709,
      "currently": 5710,
      "continues": 5711,
      "sacrific": 5712,
      "tunnel": 5713,
      "scientist": 5714,
      "knees": 5715,
      "reveal": 5716,
      "korea": 5717,
      "laundry": 5718,
      "environment": 5719,
      "helicop": 5720,
      "precisely": 5721,
      "satellite": 5722,
      "length": 5723,
      "wednesday": 5724,
      "diagno": 5725,
      "awkward": 5726,
      "mistaken": 5727,
      "jum": 5728,
      "oes": 5729,
      "plot": 5730,
      "rhy": 5731,
      "sack": 5732,
      "tis": 5733,
      "troy": 5734,
      "von": 5735,
      "inspir": 5736,
      "remark": 5737,
      "recru": 5738,
      "ancy": 5739,
      "tox": 5740,
      "toms": 5741,
      "sting": 5742,
      "sets": 5743,
      "seats": 5744,
      "lean": 5745,
      "wears": 5746,
      "beef": 5747,
      "goat": 5748,
      "gosh": 5749,
      "wipe": 5750,
      "lovers": 5751,
      "uts": 5752,
      "outfit": 5753,
      "coke": 5754,
      "arest": 5755,
      "chant": 5756,
      "therefore": 5757,
      "sheets": 5758,
      "fox": 5759,
      "raw": 5760,
      "bled": 5761,
      "spider": 5762,
      "typical": 5763,
      "marie": 5764,
      "ables": 5765,
      "omic": 5766,
      "disaster": 5767,
      "disagree": 5768,
      "answered": 5769,
      "pene": 5770,
      "penis": 5771,
      "breach": 5772,
      "nerve": 5773,
      "angela": 5774,
      "mothers": 5775,
      "cling": 5776,
      "ignor": 5777,
      "finest": 5778,
      "puzz": 5779,
      "smiling": 5780,
      "chall": 5781,
      "visiting": 5782,
      "diet": 5783,
      "dino": 5784,
      "voy": 5785,
      "davis": 5786,
      "cue": 5787,
      "painted": 5788,
      "differently": 5789,
      "italy": 5790,
      "safely": 5791,
      "capture": 5792,
      "questioning": 5793,
      "imagined": 5794,
      "scot": 5795,
      "baseball": 5796,
      "filthy": 5797,
      "fellas": 5798,
      "steady": 5799,
      "basic": 5800,
      "shooter": 5801,
      "galax": 5802,
      "suspects": 5803,
      "equal": 5804,
      "labor": 5805,
      "cabinet": 5806,
      "potato": 5807,
      "ghosts": 5808,
      "jacob": 5809,
      "colors": 5810,
      "fraud": 5811,
      "elimin": 5812,
      "incredibly": 5813,
      "wheels": 5814,
      "title": 5815,
      "blessing": 5816,
      "broadcast": 5817,
      "guts": 5818,
      "survivor": 5819,
      "disturb": 5820,
      "snap": 5821,
      "culture": 5822,
      "bishop": 5823,
      "shouting": 5824,
      "construction": 5825,
      "temporary": 5826,
      "supplies": 5827,
      "atmosphere": 5828,
      "fulfill": 5829,
      "gossip": 5830,
      "bian": 5831,
      "cough": 5832,
      "dur": 5833,
      "pand": 5834,
      "pak": 5835,
      "rink": 5836,
      "rag": 5837,
      "twin": 5838,
      "tits": 5839,
      "vag": 5840,
      "vinc": 5841,
      "wreck": 5842,
      "thal": 5843,
      "inch": 5844,
      "rein": 5845,
      "recording": 5846,
      "istered": 5847,
      "weir": 5848,
      "bent": 5849,
      "sober": 5850,
      "rial": 5851,
      "motel": 5852,
      "deter": 5853,
      "tering": 5854,
      "mann": 5855,
      "boston": 5856,
      "lookin": 5857,
      "consent": 5858,
      "goods": 5859,
      "woo": 5860,
      "prob": 5861,
      "entry": 5862,
      "meantime": 5863,
      "berry": 5864,
      "ously": 5865,
      "chess": 5866,
      "chester": 5867,
      "greg": 5868,
      "disci": 5869,
      "services": 5870,
      "suppor": 5871,
      "intense": 5872,
      "cler": 5873,
      "chop": 5874,
      "mming": 5875,
      "deadly": 5876,
      "chaos": 5877,
      "landed": 5878,
      "sounded": 5879,
      "evol": 5880,
      "patter": 5881,
      "victori": 5882,
      "ketch": 5883,
      "testimony": 5884,
      "horn": 5885,
      "opard": 5886,
      "atory": 5887,
      "miller": 5888,
      "pires": 5889,
      "teams": 5890,
      "maggie": 5891,
      "screwing": 5892,
      "element": 5893,
      "naturally": 5894,
      "vault": 5895,
      "drawing": 5896,
      "squir": 5897,
      "addition": 5898,
      "jumping": 5899,
      "accounts": 5900,
      "devast": 5901,
      "turkey": 5902,
      "knocking": 5903,
      "poisoned": 5904,
      "fantasy": 5905,
      "requested": 5906,
      "greek": 5907,
      "harmless": 5908,
      "climbing": 5909,
      "options": 5910,
      "tender": 5911,
      "mobile": 5912,
      "religious": 5913,
      "wilson": 5914,
      "loyalty": 5915,
      "cigarettes": 5916,
      "harvey": 5917,
      "candidate": 5918,
      "gibbs": 5919,
      "highest": 5920,
      "piano": 5921,
      "homicide": 5922,
      "believable": 5923,
      "mexican": 5924,
      "challeng": 5925,
      ",...": 5926,
      "aaron": 5927,
      "fid": 5928,
      "fry": 5929,
      "gary": 5930,
      "hates": 5931,
      "iv": 5932,
      "jur": 5933,
      "lance": 5934,
      "pd": 5935,
      "pod": 5936,
      "punk": 5937,
      "randy": 5938,
      "sab": 5939,
      "smar": 5940,
      "uk": 5941,
      "wan": 5942,
      "xon": 5943,
      "ini": 5944,
      "inqu": 5945,
      "remy": 5946,
      "recover": 5947,
      "tops": 5948,
      "meta": 5949,
      "merely": 5950,
      "iture": 5951,
      "stam": 5952,
      "sticking": 5953,
      "seas": 5954,
      "liver": 5955,
      "accus": 5956,
      "forts": 5957,
      "geo": 5958,
      "colo": 5959,
      "upper": 5960,
      "boob": 5961,
      "plastic": 5962,
      "connor": 5963,
      "whel": 5964,
      "exposed": 5965,
      "pering": 5966,
      "raped": 5967,
      "prepar": 5968,
      "ctu": 5969,
      "quo": 5970,
      "tap": 5971,
      "tool": 5972,
      "ette": 5973,
      "buzz": 5974,
      "diane": 5975,
      "shore": 5976,
      "phi": 5977,
      "pted": 5978,
      "supply": 5979,
      "shaw": 5980,
      "tricks": 5981,
      "players": 5982,
      "owns": 5983,
      "angeles": 5984,
      "beings": 5985,
      "blon": 5986,
      "barn": 5987,
      "compass": 5988,
      "farmer": 5989,
      "visions": 5990,
      "driven": 5991,
      "walks": 5992,
      "daily": 5993,
      "leather": 5994,
      "flood": 5995,
      "terribly": 5996,
      "explained": 5997,
      "straw": 5998,
      "crystal": 5999,
      "prisoners": 6000,
      "enjoyed": 6001,
      "region": 6002,
      "deeply": 6003,
      "grief": 6004,
      "quietly": 6005,
      "pillow": 6006,
      "phew": 6007,
      "wisdom": 6008,
      "pitch": 6009,
      "olivia": 6010,
      "describe": 6011,
      "phase": 6012,
      "stanley": 6013,
      "quality": 6014,
      "transferred": 6015,
      "satisfied": 6016,
      "surrounded": 6017,
      "diamonds": 6018,
      "struggle": 6019,
      "scratch": 6020,
      "surrender": 6021,
      "destruction": 6022,
      "wolves": 6023,
      "furniture": 6024,
      "aii": 6025,
      "bree": 6026,
      "cs": 6027,
      "dim": 6028,
      "fans": 6029,
      "og": 6030,
      "ore": 6031,
      "obey": 6032,
      "pace": 6033,
      "sally": 6034,
      "skill": 6035,
      "vast": 6036,
      "vard": 6037,
      "inher": 6038,
      "relie": 6039,
      "resident": 6040,
      "error": 6041,
      "hesit": 6042,
      "ora": 6043,
      "wels": 6044,
      "behalf": 6045,
      "aye": 6046,
      "haun": 6047,
      "goose": 6048,
      "rifle": 6049,
      "neuro": 6050,
      "cancel": 6051,
      "deaf": 6052,
      "shepher": 6053,
      "caine": 6054,
      "ains": 6055,
      "manu": 6056,
      "sorrow": 6057,
      "trag": 6058,
      "traged": 6059,
      "sucked": 6060,
      "aggress": 6061,
      "condo": 6062,
      "raising": 6063,
      "ques": 6064,
      "laura": 6065,
      "mathem": 6066,
      "divine": 6067,
      "monsie": 6068,
      "emper": 6069,
      "handy": 6070,
      "torture": 6071,
      "kidney": 6072,
      "april": 6073,
      "matthe": 6074,
      "oted": 6075,
      "charm": 6076,
      "charity": 6077,
      "cuts": 6078,
      "earl": 6079,
      "listened": 6080,
      "steak": 6081,
      "bargain": 6082,
      "payment": 6083,
      "logan": 6084,
      "engines": 6085,
      "ential": 6086,
      "gravity": 6087,
      "coln": 6088,
      "explains": 6089,
      "lincoln": 6090,
      "nearby": 6091,
      "rory": 6092,
      "fields": 6093,
      "frankly": 6094,
      "petty": 6095,
      "concert": 6096,
      "cooked": 6097,
      "cookies": 6098,
      "announ": 6099,
      "dedic": 6100,
      "generation": 6101,
      "neighbour": 6102,
      "planted": 6103,
      "assistance": 6104,
      "criminals": 6105,
      "impact": 6106,
      "dict": 6107,
      "eliza": 6108,
      "benefit": 6109,
      "bacon": 6110,
      "consult": 6111,
      "thirty": 6112,
      "lungs": 6113,
      "analysis": 6114,
      "favourite": 6115,
      "oxy": 6116,
      "attracted": 6117,
      "breasts": 6118,
      "invented": 6119,
      "engagement": 6120,
      "significant": 6121,
      "patrol": 6122,
      "technique": 6123,
      "escort": 6124,
      "powder": 6125,
      "exhaust": 6126,
      "bureau": 6127,
      "monsieur": 6128,
      "coff": 6129,
      "dign": 6130,
      "ghed": 6131,
      "hou": 6132,
      "hong": 6133,
      "pam": 6134,
      "pour": 6135,
      "slaughter": 6136,
      "tact": 6137,
      "ury": 6138,
      "yan": 6139,
      "thunder": 6140,
      "insp": 6141,
      "inches": 6142,
      "metre": 6143,
      "heave": 6144,
      "novel": 6145,
      "arab": 6146,
      "wizard": 6147,
      "hopes": 6148,
      "lois": 6149,
      "coal": 6150,
      "aret": 6151,
      "adri": 6152,
      "advert": 6153,
      "adults": 6154,
      "cane": 6155,
      "usions": 6156,
      "ambass": 6157,
      "depress": 6158,
      "pear": 6159,
      "catherine": 6160,
      "howard": 6161,
      "pole": 6162,
      "astro": 6163,
      "coma": 6164,
      "scal": 6165,
      "overwhel": 6166,
      "brake": 6167,
      "berlin": 6168,
      "laure": 6169,
      "grun": 6170,
      "bugs": 6171,
      "underground": 6172,
      "torn": 6173,
      "porter": 6174,
      "homes": 6175,
      "studied": 6176,
      "shaking": 6177,
      "breed": 6178,
      "blink": 6179,
      "planes": 6180,
      "counts": 6181,
      "lightning": 6182,
      "opens": 6183,
      "thanksgiving": 6184,
      "crum": 6185,
      "compared": 6186,
      "schools": 6187,
      "checks": 6188,
      "visual": 6189,
      "borrowed": 6190,
      "fighter": 6191,
      "fighters": 6192,
      "intern": 6193,
      "darn": 6194,
      "sends": 6195,
      "leaders": 6196,
      "awfully": 6197,
      "spoil": 6198,
      "buildings": 6199,
      "sticks": 6200,
      "virt": 6201,
      "suggestion": 6202,
      "fatal": 6203,
      "accepted": 6204,
      "shark": 6205,
      "generous": 6206,
      "spotted": 6207,
      "organization": 6208,
      "physically": 6209,
      "russia": 6210,
      "customer": 6211,
      "gordon": 6212,
      "pigs": 6213,
      "mistress": 6214,
      "subjects": 6215,
      "talented": 6216,
      "vampires": 6217,
      "consciousness": 6218,
      "convicted": 6219,
      "shelter": 6220,
      "development": 6221,
      "basketball": 6222,
      "ctives": 6223,
      "istration": 6224,
      "liquor": 6225,
      "relieved": 6226,
      "influence": 6227,
      "resources": 6228,
      "symptoms": 6229,
      "vincent": 6230,
      "relief": 6231,
      "emperor": 6232,
      "==": 6233,
      "ape": 6234,
      "boun": 6235,
      "clau": 6236,
      "fag": 6237,
      "fist": 6238,
      "fying": 6239,
      "fount": 6240,
      "hart": 6241,
      "jah": 6242,
      "lamp": 6243,
      "omy": 6244,
      "ots": 6245,
      "pm": 6246,
      "uced": 6247,
      "xter": 6248,
      "zzy": 6249,
      "invisible": 6250,
      "attered": 6251,
      "todd": 6252,
      "lls": 6253,
      "iser": 6254,
      "isra": 6255,
      "heck": 6256,
      "lex": 6257,
      "beck": 6258,
      "begging": 6259,
      "hab": 6260,
      "soda": 6261,
      "roast": 6262,
      "forgetting": 6263,
      "delight": 6264,
      "pean": 6265,
      "sheet": 6266,
      "pockets": 6267,
      "pless": 6268,
      "saint": 6269,
      "bore": 6270,
      "bothered": 6271,
      "astron": 6272,
      "exhibit": 6273,
      "kings": 6274,
      "promo": 6275,
      "proven": 6276,
      "happily": 6277,
      "ula": 6278,
      "ulty": 6279,
      "cheat": 6280,
      "buff": 6281,
      "mune": 6282,
      "firing": 6283,
      "drama": 6284,
      "wax": 6285,
      "luc": 6286,
      "porn": 6287,
      "headquarters": 6288,
      "discre": 6289,
      "wrist": 6290,
      "stub": 6291,
      "corpse": 6292,
      "fridge": 6293,
      "attan": 6294,
      "content": 6295,
      "countries": 6296,
      "holds": 6297,
      "walt": 6298,
      "crane": 6299,
      "damaged": 6300,
      "genet": 6301,
      "vessel": 6302,
      "dealt": 6303,
      "eval": 6304,
      "pected": 6305,
      "hitler": 6306,
      "stream": 6307,
      "rising": 6308,
      "madness": 6309,
      "piper": 6310,
      "dreaming": 6311,
      "ridge": 6312,
      "returns": 6313,
      "passes": 6314,
      "capacity": 6315,
      "hyper": 6316,
      "recovery": 6317,
      "deserved": 6318,
      "loading": 6319,
      "appearance": 6320,
      "weakness": 6321,
      "bastards": 6322,
      "zoe": 6323,
      "mummy": 6324,
      "terrorists": 6325,
      "required": 6326,
      "demands": 6327,
      "complaint": 6328,
      "waves": 6329,
      "particularly": 6330,
      "summon": 6331,
      "disturbed": 6332,
      "caroline": 6333,
      "convention": 6334,
      "insult": 6335,
      "increase": 6336,
      "cigarette": 6337,
      "branch": 6338,
      "kirk": 6339,
      "tattoo": 6340,
      "individual": 6341,
      "hannah": 6342,
      "unexpected": 6343,
      "advanced": 6344,
      "infected": 6345,
      "financial": 6346,
      "pizza": 6347,
      "searched": 6348,
      "penetr": 6349,
      "\"!": 6350,
      "%.": 6351,
      "ai": 6352,
      "av": 6353,
      "ais": 6354,
      "cree": 6355,
      "cable": 6356,
      "cities": 6357,
      "eag": 6358,
      "eager": 6359,
      "fig": 6360,
      "hil": 6361,
      "hattan": 6362,
      "ival": 6363,
      "mn": 6364,
      "mant": 6365,
      "narr": 6366,
      "oy": 6367,
      "oly": 6368,
      "pies": 6369,
      "pages": 6370,
      "rin": 6371,
      "rah": 6372,
      "rist": 6373,
      "rade": 6374,
      "rats": 6375,
      "ske": 6376,
      "swell": 6377,
      "tac": 6378,
      "zor": 6379,
      "thumb": 6380,
      "thieve": 6381,
      "inating": 6382,
      "infection": 6383,
      "respe": 6384,
      "republic": 6385,
      "revere": 6386,
      "ona": 6387,
      "bean": 6388,
      "beats": 6389,
      "dose": 6390,
      "solo": 6391,
      "idio": 6392,
      "rode": 6393,
      "hoped": 6394,
      "coy": 6395,
      "abuse": 6396,
      "abase": 6397,
      "tially": 6398,
      "fetch": 6399,
      "delicate": 6400,
      "causing": 6401,
      "poly": 6402,
      "pops": 6403,
      "manhattan": 6404,
      "sorts": 6405,
      "contr": 6406,
      "ived": 6407,
      "backs": 6408,
      "proves": 6409,
      "tae": 6410,
      "lame": 6411,
      "marg": 6412,
      "misunderstanding": 6413,
      "shocked": 6414,
      "underwear": 6415,
      "undercover": 6416,
      "headache": 6417,
      "homeless": 6418,
      "matches": 6419,
      "creating": 6420,
      "creative": 6421,
      "tries": 6422,
      "izes": 6423,
      "throughout": 6424,
      "clam": 6425,
      "attached": 6426,
      "parad": 6427,
      "parano": 6428,
      "jewel": 6429,
      "jews": 6430,
      "lads": 6431,
      "ladder": 6432,
      "latin": 6433,
      "earned": 6434,
      "persons": 6435,
      "personnel": 6436,
      "chased": 6437,
      "sley": 6438,
      "apply": 6439,
      "northern": 6440,
      "highway": 6441,
      "voices": 6442,
      "treating": 6443,
      "booked": 6444,
      "honeymoon": 6445,
      "testify": 6446,
      "southern": 6447,
      "witches": 6448,
      "appeal": 6449,
      "eleph": 6450,
      "controlled": 6451,
      "nik": 6452,
      "operations": 6453,
      "campus": 6454,
      "burnt": 6455,
      "casino": 6456,
      "accidentally": 6457,
      "registered": 6458,
      "reception": 6459,
      "targets": 6460,
      "slut": 6461,
      "explode": 6462,
      "examine": 6463,
      "locate": 6464,
      "located": 6465,
      "jersey": 6466,
      "allows": 6467,
      "chairman": 6468,
      "necessarily": 6469,
      "folk": 6470,
      "slap": 6471,
      "database": 6472,
      "management": 6473,
      "identified": 6474,
      "instructions": 6475,
      "stabbed": 6476,
      "defendant": 6477,
      "centuries": 6478,
      "tastes": 6479,
      "companies": 6480,
      "addict": 6481,
      "employees": 6482,
      "jungle": 6483,
      "focused": 6484,
      "brutal": 6485,
      "enterprise": 6486,
      "consequences": 6487,
      "shepherd": 6488,
      "tragedy": 6489,
      "elizabeth": 6490,
      "thieves": 6491,
      "awa": 6492,
      "cd": 6493,
      "cine": 6494,
      "eth": 6495,
      "fond": 6496,
      "kent": 6497,
      "kang": 6498,
      "lis": 6499,
      "oz": 6500,
      "rating": 6501,
      "rison": 6502,
      "rational": 6503,
      "sang": 6504,
      "vital": 6505,
      "zom": 6506,
      "oured": 6507,
      "inven": 6508,
      "rehears": 6509,
      "theo": 6510,
      "theme": 6511,
      "erm": 6512,
      "nove": 6513,
      "lena": 6514,
      "arrog": 6515,
      "beep": 6516,
      "begged": 6517,
      "hast": 6518,
      "hack": 6519,
      "soil": 6520,
      "robe": 6521,
      "loop": 6522,
      "aday": 6523,
      "nephew": 6524,
      "tier": 6525,
      "gettin": 6526,
      "nap": 6527,
      "pled": 6528,
      "safer": 6529,
      "comin": 6530,
      "compart": 6531,
      "combat": 6532,
      "prey": 6533,
      "presid": 6534,
      "scam": 6535,
      "blessed": 6536,
      "shoulders": 6537,
      "cheated": 6538,
      "greed": 6539,
      "types": 6540,
      "pathy": 6541,
      "handled": 6542,
      "handling": 6543,
      "restrain": 6544,
      "bitches": 6545,
      "dudes": 6546,
      "sible": 6547,
      "senate": 6548,
      "leslie": 6549,
      "jection": 6550,
      "jeremy": 6551,
      "smack": 6552,
      "tennis": 6553,
      "scholar": 6554,
      "dammit": 6555,
      "fights": 6556,
      "diego": 6557,
      "internal": 6558,
      "clearance": 6559,
      "closely": 6560,
      "archite": 6561,
      "elec": 6562,
      "confli": 6563,
      "confident": 6564,
      "answering": 6565,
      "mickey": 6566,
      "classified": 6567,
      "paperwork": 6568,
      "burden": 6569,
      "tune": 6570,
      "dressing": 6571,
      "roads": 6572,
      "chron": 6573,
      "smaller": 6574,
      "flee": 6575,
      "destroying": 6576,
      "rounds": 6577,
      "psych": 6578,
      "peaceful": 6579,
      "volcan": 6580,
      "russell": 6581,
      "booze": 6582,
      "involve": 6583,
      "nifer": 6584,
      "chicks": 6585,
      "introduced": 6586,
      "jennifer": 6587,
      "traces": 6588,
      "politic": 6589,
      "neighbors": 6590,
      "statue": 6591,
      "polite": 6592,
      "critical": 6593,
      "civilian": 6594,
      "execution": 6595,
      "leonard": 6596,
      "warriors": 6597,
      "assassination": 6598,
      "convenient": 6599,
      "francisco": 6600,
      "festival": 6601,
      "spark": 6602,
      "photographer": 6603,
      "florida": 6604,
      "admire": 6605,
      "ambitious": 6606,
      "radiation": 6607,
      "barbara": 6608,
      "wealth": 6609,
      "switched": 6610,
      "specifically": 6611,
      "application": 6612,
      "balloon": 6613,
      "oxygen": 6614,
      "ambassador": 6615,
      "respected": 6616,
      "aled": 6617,
      "cé": 6618,
      "ckey": 6619,
      "dup": 6620,
      "filed": 6621,
      "gross": 6622,
      "glen": 6623,
      "gloves": 6624,
      "hir": 6625,
      "lation": 6626,
      "lang": 6627,
      "rs": 6628,
      "rank": 6629,
      "uine": 6630,
      "yö": 6631,
      "recall": 6632,
      "rebecca": 6633,
      "theft": 6634,
      "ata": 6635,
      "tore": 6636,
      "erie": 6637,
      "het": 6638,
      "orbit": 6639,
      "orient": 6640,
      "stare": 6641,
      "vest": 6642,
      "seme": 6643,
      "andal": 6644,
      "bels": 6645,
      "asion": 6646,
      "whit": 6647,
      "keen": 6648,
      "iding": 6649,
      "robo": 6650,
      "rocket": 6651,
      "ghters": 6652,
      "forty": 6653,
      "utions": 6654,
      "gel": 6655,
      "icient": 6656,
      "cance": 6657,
      "unbelievable": 6658,
      "deeper": 6659,
      "ternal": 6660,
      "shin": 6661,
      "sauce": 6662,
      "guitar": 6663,
      "agers": 6664,
      "plat": 6665,
      "plates": 6666,
      "conscience": 6667,
      "comrade": 6668,
      "needle": 6669,
      "raj": 6670,
      "offs": 6671,
      "ideal": 6672,
      "previous": 6673,
      "scum": 6674,
      "scrub": 6675,
      "storage": 6676,
      "spain": 6677,
      "maya": 6678,
      "overnight": 6679,
      "label": 6680,
      "betting": 6681,
      "fiance": 6682,
      "menu": 6683,
      "pale": 6684,
      "phili": 6685,
      "mustn": 6686,
      "clothing": 6687,
      "coron": 6688,
      "augh": 6689,
      "dug": 6690,
      "angels": 6691,
      "blank": 6692,
      "vier": 6693,
      "foundation": 6694,
      "warp": 6695,
      "jew": 6696,
      "stron": 6697,
      "june": 6698,
      "gathered": 6699,
      "sings": 6700,
      "genuine": 6701,
      "synd": 6702,
      "highness": 6703,
      "daughters": 6704,
      "testing": 6705,
      "tested": 6706,
      "musical": 6707,
      "samples": 6708,
      "tempting": 6709,
      "copies": 6710,
      "superman": 6711,
      "packing": 6712,
      "dentist": 6713,
      "massage": 6714,
      "psychi": 6715,
      "alike": 6716,
      "contacts": 6717,
      "suggesting": 6718,
      "population": 6719,
      "prayers": 6720,
      "dutch": 6721,
      "transpor": 6722,
      "flir": 6723,
      "impul": 6724,
      "demons": 6725,
      "demonstr": 6726,
      "jamie": 6727,
      "separated": 6728,
      "complaining": 6729,
      "injuries": 6730,
      "rescu": 6731,
      "activity": 6732,
      "spreading": 6733,
      "european": 6734,
      "shadows": 6735,
      "warehouse": 6736,
      "betrayed": 6737,
      "scheduled": 6738,
      "negotiate": 6739,
      "jessica": 6740,
      "knee": 6741,
      "drowned": 6742,
      "resistance": 6743,
      "gambling": 6744,
      "crawl": 6745,
      "sync": 6746,
      "consistent": 6747,
      "visitors": 6748,
      "compromised": 6749,
      "explosives": 6750,
      "ceremony": 6751,
      "throne": 6752,
      "squeeze": 6753,
      "helicopter": 6754,
      "discipl": 6755,
      "aggressive": 6756,
      "electron": 6757,
      "psychiat": 6758,
      "'!": 6759,
      "bout": 6760,
      "dread": 6761,
      "ere": 6762,
      "echo": 6763,
      "etern": 6764,
      "gins": 6765,
      "jaw": 6766,
      "kor": 6767,
      "lous": 6768,
      "mie": 6769,
      "mia": 6770,
      "nun": 6771,
      "oscar": 6772,
      "rated": 6773,
      "sni": 6774,
      "uld": 6775,
      "vas": 6776,
      "wade": 6777,
      "zon": 6778,
      "oul": 6779,
      "infin": 6780,
      "intim": 6781,
      "recon": 6782,
      "react": 6783,
      "tos": 6784,
      "ishes": 6785,
      "nold": 6786,
      "stim": 6787,
      "sep": 6788,
      "lene": 6789,
      "arse": 6790,
      "ario": 6791,
      "begun": 6792,
      "enor": 6793,
      "encer": 6794,
      "doe": 6795,
      "dope": 6796,
      "album": 6797,
      "rib": 6798,
      "riel": 6799,
      "ripped": 6800,
      "wiped": 6801,
      "holo": 6802,
      "homo": 6803,
      "icent": 6804,
      "chor": 6805,
      "donald": 6806,
      "upside": 6807,
      "poses": 6808,
      "shri": 6809,
      "shitty": 6810,
      "manner": 6811,
      "suite": 6812,
      "bold": 6813,
      "agan": 6814,
      "plas": 6815,
      "backwards": 6816,
      "prostit": 6817,
      "causes": 6818,
      "actress": 6819,
      "scout": 6820,
      "scent": 6821,
      "meanwhile": 6822,
      "spencer": 6823,
      "fame": 6824,
      "brass": 6825,
      "gras": 6826,
      "bubble": 6827,
      "joan": 6828,
      "forens": 6829,
      "diplo": 6830,
      "pork": 6831,
      "dishes": 6832,
      "intended": 6833,
      "nerable": 6834,
      "badge": 6835,
      "senses": 6836,
      "dreamed": 6837,
      "jewish": 6838,
      "desires": 6839,
      "certific": 6840,
      "tension": 6841,
      "crashed": 6842,
      "lawrence": 6843,
      "deaths": 6844,
      "skir": 6845,
      "harper": 6846,
      "harold": 6847,
      "invitation": 6848,
      "promises": 6849,
      "laughed": 6850,
      "completed": 6851,
      "efforts": 6852,
      "burger": 6853,
      "superior": 6854,
      "boxing": 6855,
      "structure": 6856,
      "clubs": 6857,
      "salary": 6858,
      "claimed": 6859,
      "thorough": 6860,
      "approval": 6861,
      "psychic": 6862,
      "circu": 6863,
      "recovered": 6864,
      "concerns": 6865,
      "practicing": 6866,
      "filling": 6867,
      "detectives": 6868,
      "bald": 6869,
      "eyed": 6870,
      "heather": 6871,
      "duties": 6872,
      "possess": 6873,
      "teachers": 6874,
      "banana": 6875,
      "organized": 6876,
      "swimming": 6877,
      "medication": 6878,
      "jenna": 6879,
      "existence": 6880,
      "flame": 6881,
      "bachel": 6882,
      "retard": 6883,
      "symbol": 6884,
      "limits": 6885,
      "ralph": 6886,
      "constant": 6887,
      "whiskey": 6888,
      "defeated": 6889,
      "assassin": 6890,
      "nigger": 6891,
      "prosecu": 6892,
      "compliment": 6893,
      "declared": 6894,
      "corporate": 6895,
      "championship": 6896,
      "industry": 6897,
      "assemble": 6898,
      "occurred": 6899,
      "alternative": 6900,
      "counselor": 6901,
      "commercial": 6902,
      "colleague": 6903,
      "eastern": 6904,
      "evacu": 6905,
      "interrogation": 6906,
      "dawson": 6907,
      "dignity": 6908,
      "idiots": 6909,
      "lousy": 6910,
      "athan": 6911,
      "batt": 6912,
      "cers": 6913,
      "ethan": 6914,
      "fisher": 6915,
      "glu": 6916,
      "hut": 6917,
      "ige": 6918,
      "kan": 6919,
      "kitty": 6920,
      "lting": 6921,
      "lung": 6922,
      "mick": 6923,
      "mbed": 6924,
      "nas": 6925,
      "ored": 6926,
      "pine": 6927,
      "pts": 6928,
      "poker": 6929,
      "sions": 6930,
      "tid": 6931,
      "tack": 6932,
      "twel": 6933,
      "vod": 6934,
      "wagon": 6935,
      "reverse": 6936,
      "reference": 6937,
      "reservation": 6938,
      "tomat": 6939,
      "hend": 6940,
      "ories": 6941,
      "stad": 6942,
      "stack": 6943,
      "vet": 6944,
      "lecture": 6945,
      "armor": 6946,
      "bears": 6947,
      "whack": 6948,
      "encing": 6949,
      "encounter": 6950,
      "doom": 6951,
      "riger": 6952,
      "wicked": 6953,
      "holic": 6954,
      "loo": 6955,
      "lobby": 6956,
      "okie": 6957,
      "myth": 6958,
      "neut": 6959,
      "chu": 6960,
      "abilities": 6961,
      "canada": 6962,
      "unsub": 6963,
      "motiv": 6964,
      "amber": 6965,
      "deton": 6966,
      "nails": 6967,
      "anyways": 6968,
      "polish": 6969,
      "illness": 6970,
      "gum": 6971,
      "timent": 6972,
      "ahh": 6973,
      "everyday": 6974,
      "inevit": 6975,
      "quake": 6976,
      "quet": 6977,
      "episo": 6978,
      "taxi": 6979,
      "lazy": 6980,
      "cheers": 6981,
      "mau": 6982,
      "bucket": 6983,
      "talkin": 6984,
      "moron": 6985,
      "spective": 6986,
      "shove": 6987,
      "pawn": 6988,
      "waits": 6989,
      "brooke": 6990,
      "pton": 6991,
      "waters": 6992,
      "pension": 6993,
      "ffin": 6994,
      "clan": 6995,
      "clusive": 6996,
      "sentiment": 6997,
      "strings": 6998,
      "desc": 6999,
      "jules": 7000,
      "primary": 7001,
      "curtain": 7002,
      "dining": 7003,
      "luckily": 7004,
      "integr": 7005,
      "viewed": 7006,
      "closest": 7007,
      "interests": 7008,
      "graphy": 7009,
      "magnif": 7010,
      "elena": 7011,
      "opera": 7012,
      "attacks": 7013,
      "imagin": 7014,
      "tured": 7015,
      "supervis": 7016,
      "threats": 7017,
      "budd": 7018,
      "investment": 7019,
      "films": 7020,
      "experiences": 7021,
      "machines": 7022,
      "fools": 7023,
      "fooling": 7024,
      "basis": 7025,
      "personality": 7026,
      "suggested": 7027,
      "suitcase": 7028,
      "threaten": 7029,
      "bells": 7030,
      "sucking": 7031,
      "chips": 7032,
      "telephone": 7033,
      "karl": 7034,
      "autopsy": 7035,
      "execute": 7036,
      "software": 7037,
      "candle": 7038,
      "rita": 7039,
      "puppy": 7040,
      "executed": 7041,
      "gathering": 7042,
      "affected": 7043,
      "tanks": 7044,
      "therapist": 7045,
      "virginia": 7046,
      "arrangement": 7047,
      "holidays": 7048,
      "jonathan": 7049,
      "wrapped": 7050,
      "expression": 7051,
      "global": 7052,
      "rusty": 7053,
      "gabriel": 7054,
      "occupied": 7055,
      "concentrate": 7056,
      "australia": 7057,
      "forbidden": 7058,
      "masters": 7059,
      "academy": 7060,
      "independent": 7061,
      "cuffs": 7062,
      "whistle": 7063,
      "penalty": 7064,
      "survivors": 7065,
      "tragic": 7066,
      "metres": 7067,
      "fountain": 7068,
      "stubborn": 7069,
      "reverend": 7070,
      "twelve": 7071,
      "episode": 7072,
      "dwi": 7073,
      "ec": 7074,
      "ek": 7075,
      "gur": 7076,
      "lac": 7077,
      "lers": 7078,
      "mason": 7079,
      "nn": 7080,
      "ratt": 7081,
      "snif": 7082,
      "ub": 7083,
      "ume": 7084,
      "refu": 7085,
      "rehab": 7086,
      "anor": 7087,
      "tok": 7088,
      "toxic": 7089,
      "isy": 7090,
      "heir": 7091,
      "nood": 7092,
      "vend": 7093,
      "sector": 7094,
      "wha": 7095,
      "enforce": 7096,
      "haul": 7097,
      "lick": 7098,
      "acon": 7099,
      "accompli": 7100,
      "coin": 7101,
      "copper": 7102,
      "cows": 7103,
      "cocaine": 7104,
      "adel": 7105,
      "nell": 7106,
      "tiger": 7107,
      "tires": 7108,
      "unconscious": 7109,
      "immig": 7110,
      "immune": 7111,
      "justify": 7112,
      "fears": 7113,
      "naught": 7114,
      "cafe": 7115,
      "catho": 7116,
      "aine": 7117,
      "wells": 7118,
      "boil": 7119,
      "contribut": 7120,
      "expose": 7121,
      "compar": 7122,
      "proving": 7123,
      "proces": 7124,
      "scars": 7125,
      "spite": 7126,
      "overcome": 7127,
      "ulk": 7128,
      "lawn": 7129,
      "marge": 7130,
      "martha": 7131,
      "pron": 7132,
      "carrie": 7133,
      "monica": 7134,
      "phon": 7135,
      "goddess": 7136,
      "portra": 7137,
      "disgu": 7138,
      "fathers": 7139,
      "penn": 7140,
      "sites": 7141,
      "meetings": 7142,
      "parade": 7143,
      "smashed": 7144,
      "prick": 7145,
      "compound": 7146,
      "drift": 7147,
      "syl": 7148,
      "casey": 7149,
      "messenger": 7150,
      "diner": 7151,
      "stuffed": 7152,
      "harvard": 7153,
      "eats": 7154,
      "sexually": 7155,
      "cents": 7156,
      "risks": 7157,
      "stark": 7158,
      "bait": 7159,
      "stephen": 7160,
      "subway": 7161,
      "susp": 7162,
      "perimeter": 7163,
      "facial": 7164,
      "attacking": 7165,
      "tics": 7166,
      "grounds": 7167,
      "scope": 7168,
      "salad": 7169,
      "hyster": 7170,
      "fixing": 7171,
      "rolls": 7172,
      "lana": 7173,
      "cameron": 7174,
      "register": 7175,
      "cookie": 7176,
      "palmer": 7177,
      "seventh": 7178,
      "slam": 7179,
      "relevant": 7180,
      "punched": 7181,
      "belonged": 7182,
      "praying": 7183,
      "possessed": 7184,
      "discussed": 7185,
      "cruise": 7186,
      "conversations": 7187,
      "refriger": 7188,
      "clara": 7189,
      "reaching": 7190,
      "skinny": 7191,
      "turk": 7192,
      "pregnancy": 7193,
      "louise": 7194,
      "spiritual": 7195,
      "fingerprints": 7196,
      "yards": 7197,
      "julian": 7198,
      "kidnapping": 7199,
      "jealousy": 7200,
      "rumors": 7201,
      "activated": 7202,
      "romance": 7203,
      "debate": 7204,
      "granted": 7205,
      "regarding": 7206,
      "arguing": 7207,
      "communications": 7208,
      "convincing": 7209,
      "newspapers": 7210,
      "assignment": 7211,
      "relatives": 7212,
      "tumor": 7213,
      "stroke": 7214,
      "vietnam": 7215,
      "conclusion": 7216,
      "galaxy": 7217,
      "clerk": 7218,
      "creek": 7219,
      "paradise": 7220,
      "semester": 7221,
      "eternity": 7222,
      "vodka": 7223,
      "catholic": 7224,
      "__": 7225,
      "biz": 7226,
      "cattle": 7227,
      "dal": 7228,
      "dang": 7229,
      "eous": 7230,
      "eff": 7231,
      "ellen": 7232,
      "gps": 7233,
      "ivity": 7234,
      "jas": 7235,
      "kra": 7236,
      "knight": 7237,
      "nina": 7238,
      "ov": 7239,
      "phis": 7240,
      "pent": 7241,
      "pil": 7242,
      "rd": 7243,
      "rou": 7244,
      "sust": 7245,
      "sling": 7246,
      "signing": 7247,
      "vom": 7248,
      "wre": 7249,
      "wars": 7250,
      "xim": 7251,
      "zu": 7252,
      "intru": 7253,
      "reo": 7254,
      "rett": 7255,
      "retired": 7256,
      "reaches": 7257,
      "replaced": 7258,
      "anth": 7259,
      "melt": 7260,
      "issa": 7261,
      "hem": 7262,
      "lem": 7263,
      "lete": 7264,
      "leap": 7265,
      "lewis": 7266,
      "whip": 7267,
      "dod": 7268,
      "ghan": 7269,
      "soap": 7270,
      "lime": 7271,
      "acles": 7272,
      "esy": 7273,
      "essa": 7274,
      "cope": 7275,
      "areas": 7276,
      "admitted": 7277,
      "user": 7278,
      "tember": 7279,
      "fet": 7280,
      "feli": 7281,
      "pepper": 7282,
      "nament": 7283,
      "yell": 7284,
      "shining": 7285,
      "manners": 7286,
      "guer": 7287,
      "tracy": 7288,
      "boats": 7289,
      "conver": 7290,
      "fury": 7291,
      "makeup": 7292,
      "affection": 7293,
      "tapes": 7294,
      "helpless": 7295,
      "chet": 7296,
      "sonny": 7297,
      "reese": 7298,
      "betty": 7299,
      "dimen": 7300,
      "dram": 7301,
      "carlos": 7302,
      "embass": 7303,
      "pharm": 7304,
      "supper": 7305,
      "roommate": 7306,
      "sitter": 7307,
      "warming": 7308,
      "parked": 7309,
      "pud": 7310,
      "chains": 7311,
      "stew": 7312,
      "compare": 7313,
      "ggie": 7314,
      "harsh": 7315,
      "picks": 7316,
      "dennis": 7317,
      "lley": 7318,
      "grandson": 7319,
      "merry": 7320,
      "fiction": 7321,
      "solar": 7322,
      "valid": 7323,
      "protective": 7324,
      "troubles": 7325,
      "nibal": 7326,
      "operating": 7327,
      "lined": 7328,
      "recorded": 7329,
      "distress": 7330,
      "flush": 7331,
      "judging": 7332,
      "buddies": 7333,
      "mption": 7334,
      "entering": 7335,
      "messy": 7336,
      "osity": 7337,
      "girlfriends": 7338,
      "palm": 7339,
      "added": 7340,
      "nette": 7341,
      "deliber": 7342,
      "blows": 7343,
      "popcorn": 7344,
      "owen": 7345,
      "threatening": 7346,
      "racing": 7347,
      "snack": 7348,
      "authorized": 7349,
      "reliable": 7350,
      "bonnie": 7351,
      "reporting": 7352,
      "physic": 7353,
      "slaves": 7354,
      "emotionally": 7355,
      "teenage": 7356,
      "graduation": 7357,
      "autograph": 7358,
      "commitment": 7359,
      "britain": 7360,
      "origin": 7361,
      "constantly": 7362,
      "cooperate": 7363,
      "civiliz": 7364,
      "rarely": 7365,
      "alcoholic": 7366,
      "values": 7367,
      "taxes": 7368,
      "spinning": 7369,
      "provided": 7370,
      "rabbit": 7371,
      "motorcycle": 7372,
      "toys": 7373,
      "residence": 7374,
      "dessert": 7375,
      "ultimate": 7376,
      "receipt": 7377,
      "privilege": 7378,
      "valentine": 7379,
      "bernard": 7380,
      "stunning": 7381,
      "swallow": 7382,
      "grenade": 7383,
      "determine": 7384,
      "victoria": 7385,
      "metaph": 7386,
      "philo": 7387,
      "blonde": 7388,
      "coffin": 7389,
      "heavens": 7390,
      "lauren": 7391,
      "margaret": 7392,
      "september": 7393,
      "inevitable": 7394,
      "accomplice": 7395,
      "naughty": 7396,
      "-...": 7397,
      "aire": 7398,
      "dv": 7399,
      "ditch": 7400,
      "gim": 7401,
      "glove": 7402,
      "gage": 7403,
      "hats": 7404,
      "jab": 7405,
      "kon": 7406,
      "kane": 7407,
      "khan": 7408,
      "lust": 7409,
      "mour": 7410,
      "nad": 7411,
      "oath": 7412,
      "tina": 7413,
      "uations": 7414,
      "ully": 7415,
      "wang": 7416,
      "xena": 7417,
      "yl": 7418,
      "yen": 7419,
      "{\\": 7420,
      "iner": 7421,
      "rell": 7422,
      "refe": 7423,
      "theat": 7424,
      "theless": 7425,
      "ero": 7426,
      "metery": 7427,
      "hector": 7428,
      "heels": 7429,
      "arian": 7430,
      "bees": 7431,
      "beers": 7432,
      "whi": 7433,
      "edi": 7434,
      "ensure": 7435,
      "ensign": 7436,
      "enthus": 7437,
      "hai": 7438,
      "hable": 7439,
      "goa": 7440,
      "doy": 7441,
      "allison": 7442,
      "sore": 7443,
      "kee": 7444,
      "keith": 7445,
      "limb": 7446,
      "acid": 7447,
      "rival": 7448,
      "lder": 7449,
      "codes": 7450,
      "neal": 7451,
      "tians": 7452,
      "cans": 7453,
      "cancell": 7454,
      "unfair": 7455,
      "mosco": 7456,
      "righteous": 7457,
      "peak": 7458,
      "peach": 7459,
      "cemetery": 7460,
      "naz": 7461,
      "nazi": 7462,
      "caes": 7463,
      "poo": 7464,
      "ained": 7465,
      "mankind": 7466,
      "manual": 7467,
      "histori": 7468,
      "aston": 7469,
      "comment": 7470,
      "perse": 7471,
      "elu": 7472,
      "ctic": 7473,
      "umbre": 7474,
      "bles": 7475,
      "afghan": 7476,
      "happier": 7477,
      "fax": 7478,
      "caller": 7479,
      "killers": 7480,
      "grind": 7481,
      "mails": 7482,
      "assholes": 7483,
      "forehead": 7484,
      "diana": 7485,
      "fian": 7486,
      "minimum": 7487,
      "lugg": 7488,
      "carbon": 7489,
      "monte": 7490,
      "oldest": 7491,
      "studies": 7492,
      "intri": 7493,
      "corrup": 7494,
      "dynam": 7495,
      "rences": 7496,
      "vik": 7497,
      "funds": 7498,
      "sengers": 7499,
      "meets": 7500,
      "attach": 7501,
      "choo": 7502,
      "weekends": 7503,
      "jeopard": 7504,
      "stepped": 7505,
      "landing": 7506,
      "damon": 7507,
      "curtis": 7508,
      "interfe": 7509,
      "fires": 7510,
      "horror": 7511,
      "importance": 7512,
      "pulls": 7513,
      "simpson": 7514,
      "floating": 7515,
      "confusing": 7516,
      "largest": 7517,
      "gently": 7518,
      "colon": 7519,
      "excuses": 7520,
      "ranch": 7521,
      "ransom": 7522,
      "mitch": 7523,
      "halluc": 7524,
      "boarding": 7525,
      "sweets": 7526,
      "aliens": 7527,
      "grocer": 7528,
      "arrival": 7529,
      "bench": 7530,
      "braz": 7531,
      "holmes": 7532,
      "battery": 7533,
      "hills": 7534,
      "nelson": 7535,
      "bottles": 7536,
      "necklace": 7537,
      "include": 7538,
      "fluid": 7539,
      "scheme": 7540,
      "immediate": 7541,
      "kidnap": 7542,
      "amongst": 7543,
      "vacu": 7544,
      "reckless": 7545,
      "tanner": 7546,
      "continued": 7547,
      "representative": 7548,
      "laptop": 7549,
      "cowboy": 7550,
      "snakes": 7551,
      "prosecution": 7552,
      "williams": 7553,
      "assigned": 7554,
      "chemicals": 7555,
      "conduct": 7556,
      "nightmares": 7557,
      "slightly": 7558,
      "priority": 7559,
      "employee": 7560,
      "farewell": 7561,
      "scenes": 7562,
      "democr": 7563,
      "protocol": 7564,
      "ultimately": 7565,
      "acceler": 7566,
      "collapsed": 7567,
      "legitimate": 7568,
      "accurate": 7569,
      "interrupting": 7570,
      "anxious": 7571,
      "quote": 7572,
      "manufact": 7573,
      "mathemat": 7574,
      "paranoid": 7575,
      "jewelry": 7576,
      "november": 7577,
      "compartment": 7578,
      "yöu": 7579,
      "strongest": 7580,
      "enormous": 7581,
      "embassy": 7582,
      "enthusi": 7583,
      "moscow": 7584,
      "chow": 7585,
      "ein": 7586,
      "ego": 7587,
      "elo": 7588,
      "eigh": 7589,
      "eternal": 7590,
      "fri": 7591,
      "fles": 7592,
      "glow": 7593,
      "hound": 7594,
      "ivan": 7595,
      "jill": 7596,
      "kong": 7597,
      "oma": 7598,
      "oven": 7599,
      "sple": 7600,
      "twe": 7601,
      "uff": 7602,
      "wished": 7603,
      "yi": 7604,
      "yon": 7605,
      "ths": 7606,
      "inappropriate": 7607,
      "rejected": 7608,
      "toe": 7609,
      "tobac": 7610,
      "erson": 7611,
      "mere": 7612,
      "mered": 7613,
      "meals": 7614,
      "orphan": 7615,
      "sten": 7616,
      "stations": 7617,
      "seth": 7618,
      "ark": 7619,
      "arson": 7620,
      "whim": 7621,
      "editor": 7622,
      "hawa": 7623,
      "dol": 7624,
      "riley": 7625,
      "fork": 7626,
      "holl": 7627,
      "adder": 7628,
      "nels": 7629,
      "dong": 7630,
      "mot": 7631,
      "ifying": 7632,
      "update": 7633,
      "aman": 7634,
      "feature": 7635,
      "felon": 7636,
      "deploy": 7637,
      "cease": 7638,
      "shelf": 7639,
      "teria": 7640,
      "nause": 7641,
      "navig": 7642,
      "cape": 7643,
      "herd": 7644,
      "poi": 7645,
      "poster": 7646,
      "worries": 7647,
      "seeking": 7648,
      "bolt": 7649,
      "plug": 7650,
      "comedy": 7651,
      "exped": 7652,
      "exagger": 7653,
      "exclusive": 7654,
      "endless": 7655,
      "perspective": 7656,
      "protest": 7657,
      "promotion": 7658,
      "fug": 7659,
      "prec": 7660,
      "quer": 7661,
      "ulated": 7662,
      "tools": 7663,
      "laus": 7664,
      "marco": 7665,
      "marines": 7666,
      "waiter": 7667,
      "embrace": 7668,
      "phra": 7669,
      "disorder": 7670,
      "restri": 7671,
      "este": 7672,
      "corp": 7673,
      "trips": 7674,
      "aux": 7675,
      "bloom": 7676,
      "bren": 7677,
      "blunt": 7678,
      "vibr": 7679,
      "sits": 7680,
      "elsewhere": 7681,
      "judy": 7682,
      "stefan": 7683,
      "singer": 7684,
      "barbe": 7685,
      "understands": 7686,
      "cran": 7687,
      "cram": 7688,
      "crank": 7689,
      "craz": 7690,
      "borg": 7691,
      "drill": 7692,
      "ggs": 7693,
      "decades": 7694,
      "trusting": 7695,
      "crip": 7696,
      "metro": 7697,
      "dancer": 7698,
      "shotgun": 7699,
      "buyer": 7700,
      "invasion": 7701,
      "shuttle": 7702,
      "bai": 7703,
      "brig": 7704,
      "worthless": 7705,
      "colm": 7706,
      "sammy": 7707,
      "positions": 7708,
      "honored": 7709,
      "transmission": 7710,
      "throws": 7711,
      "clues": 7712,
      "hyp": 7713,
      "honesty": 7714,
      "defending": 7715,
      "glas": 7716,
      "franklin": 7717,
      "guardian": 7718,
      "respects": 7719,
      "grows": 7720,
      "contacted": 7721,
      "forgiveness": 7722,
      "locations": 7723,
      "bella": 7724,
      "discussion": 7725,
      "remaining": 7726,
      "hooker": 7727,
      "freshman": 7728,
      "cherry": 7729,
      "frost": 7730,
      "pheno": 7731,
      "poisoning": 7732,
      "faithful": 7733,
      "customs": 7734,
      "juliet": 7735,
      "rubber": 7736,
      "requires": 7737,
      "gained": 7738,
      "debts": 7739,
      "broadway": 7740,
      "glorious": 7741,
      "crashing": 7742,
      "indicate": 7743,
      "texts": 7744,
      "communication": 7745,
      "nanny": 7746,
      "educated": 7747,
      "intelligent": 7748,
      "surrounding": 7749,
      "increasing": 7750,
      "pumpkin": 7751,
      "gallery": 7752,
      "performing": 7753,
      "insisted": 7754,
      "commissioner": 7755,
      "liquid": 7756,
      "savage": 7757,
      "atlantic": 7758,
      "methods": 7759,
      "scenario": 7760,
      "advised": 7761,
      "abducted": 7762,
      "railroad": 7763,
      "oblig": 7764,
      "audition": 7765,
      "discovery": 7766,
      "prescription": 7767,
      "auntie": 7768,
      "compassion": 7769,
      "inspired": 7770,
      "rehearsal": 7771,
      "hiring": 7772,
      "plasma": 7773,
      "certificate": 7774,
      "bachelor": 7775,
      "magnificent": 7776,
      "fiancé": 7777,
      "luggage": 7778,
      "vacuum": 7779,
      "bry": 7780,
      "bia": 7781,
      "cried": 7782,
      "cular": 7783,
      "cunt": 7784,
      "dwell": 7785,
      "faint": 7786,
      "gill": 7787,
      "ials": 7788,
      "kah": 7789,
      "kath": 7790,
      "lure": 7791,
      "mah": 7792,
      "mma": 7793,
      "nand": 7794,
      "obe": 7795,
      "oween": 7796,
      "pra": 7797,
      "pip": 7798,
      "rr": 7799,
      "rul": 7800,
      "sation": 7801,
      "sketch": 7802,
      "tite": 7803,
      "retri": 7804,
      "resign": 7805,
      "resort": 7806,
      "onent": 7807,
      "towel": 7808,
      "eration": 7809,
      "meg": 7810,
      "itals": 7811,
      "sta": 7812,
      "stum": 7813,
      "seiz": 7814,
      "lef": 7815,
      "wes": 7816,
      "aria": 7817,
      "beside": 7818,
      "envelo": 7819,
      "encies": 7820,
      "gown": 7821,
      "doz": 7822,
      "ala": 7823,
      "albert": 7824,
      "allen": 7825,
      "liam": 7826,
      "limp": 7827,
      "ropes": 7828,
      "widow": 7829,
      "chim": 7830,
      "absor": 7831,
      "timid": 7832,
      "anter": 7833,
      "dem": 7834,
      "peg": 7835,
      "pey": 7836,
      "ceiling": 7837,
      "naive": 7838,
      "naom": 7839,
      "popped": 7840,
      "thinkin": 7841,
      "manif": 7842,
      "maniac": 7843,
      "guid": 7844,
      "concept": 7845,
      "histo": 7846,
      "ndy": 7847,
      "ateur": 7848,
      "comic": 7849,
      "sayin": 7850,
      "persu": 7851,
      "eland": 7852,
      "quin": 7853,
      "scandal": 7854,
      "stored": 7855,
      "mentally": 7856,
      "chemist": 7857,
      "males": 7858,
      "mulder": 7859,
      "marvel": 7860,
      "iley": 7861,
      "morph": 7862,
      "morgue": 7863,
      "item": 7864,
      "coup": 7865,
      "cargo": 7866,
      "phill": 7867,
      "disrespect": 7868,
      "turner": 7869,
      "watches": 7870,
      "realm": 7871,
      "realised": 7872,
      "kindness": 7873,
      "lottery": 7874,
      "hiro": 7875,
      "crete": 7876,
      "shaped": 7877,
      "frust": 7878,
      "dull": 7879,
      "motherfucking": 7880,
      "worlds": 7881,
      "choke": 7882,
      "jelly": 7883,
      "lighter": 7884,
      "barney": 7885,
      "ctors": 7886,
      "kenned": 7887,
      "hunch": 7888,
      "hunters": 7889,
      "observe": 7890,
      "picnic": 7891,
      "murphy": 7892,
      "harris": 7893,
      "intel": 7894,
      "cedes": 7895,
      "identical": 7896,
      "tomb": 7897,
      "controlling": 7898,
      "relations": 7899,
      "hanged": 7900,
      "topher": 7901,
      "perial": 7902,
      "collected": 7903,
      "column": 7904,
      "garcia": 7905,
      "uniforms": 7906,
      "passport": 7907,
      "presents": 7908,
      "christine": 7909,
      "budget": 7910,
      "draft": 7911,
      "drawer": 7912,
      "hallway": 7913,
      "halloween": 7914,
      "douche": 7915,
      "approved": 7916,
      "villain": 7917,
      "memorial": 7918,
      "issued": 7919,
      "heroin": 7920,
      "detected": 7921,
      "pancakes": 7922,
      "explore": 7923,
      "suspected": 7924,
      "instance": 7925,
      "sharks": 7926,
      "bothers": 7927,
      "niece": 7928,
      "resume": 7929,
      "ification": 7930,
      "alexander": 7931,
      "trophy": 7932,
      "tournament": 7933,
      "islands": 7934,
      "scaring": 7935,
      "flattered": 7936,
      "developing": 7937,
      "kara": 7938,
      "pistol": 7939,
      "unfortunate": 7940,
      "benefits": 7941,
      "symbo": 7942,
      "various": 7943,
      "stalking": 7944,
      "engineering": 7945,
      "lifted": 7946,
      "ruining": 7947,
      "gloria": 7948,
      "tearing": 7949,
      "scape": 7950,
      "distribut": 7951,
      "communicate": 7952,
      "butterfly": 7953,
      "sequence": 7954,
      "associates": 7955,
      "experts": 7956,
      "ignored": 7957,
      "stinks": 7958,
      "struggling": 7959,
      "relative": 7960,
      "photographs": 7961,
      "clouds": 7962,
      "laser": 7963,
      "beliefs": 7964,
      "doomed": 7965,
      "poetry": 7966,
      "spilled": 7967,
      "australian": 7968,
      "casualties": 7969,
      "announcement": 7970,
      "fuss": 7971,
      "sperm": 7972,
      "pakistan": 7973,
      "patterns": 7974,
      "smarter": 7975,
      "haunted": 7976,
      "adrian": 7977,
      "peanut": 7978,
      "genetic": 7979,
      "arrogant": 7980,
      "shrimp": 7981,
      "prosecutor": 7982,
      "enforcement": 7983,
      "philoso": 7984,
      "afghanistan": 7985,
      "corruption": 7986,
      "tobacco": 7987,
      "poirot": 7988,
      "kennedy": 7989,
      "avery": 7990,
      "ail": 7991,
      "dall": 7992,
      "fart": 7993,
      "gag": 7994,
      "hulk": 7995,
      "ito": 7996,
      "ika": 7997,
      "jing": 7998,
      "kas": 7999,
      "kira": 8000,
      "kurt": 8001,
      "lass": 8002,
      "mploy": 8003,
      "oak": 8004,
      "pry": 8005,
      "pant": 8006,
      "rack": 8007,
      "swords": 8008,
      "slay": 8009,
      "swore": 8010,
      "uous": 8011,
      "vow": 8012,
      "wu": 8013,
      "yup": 8014,
      "zach": 8015,
      "ouch": 8016,
      "rec": 8017,
      "ani": 8018,
      "thed": 8019,
      "toby": 8020,
      "erce": 8021,
      "megan": 8022,
      "isms": 8023,
      "hee": 8024,
      "seattle": 8025,
      "weep": 8026,
      "hail": 8027,
      "sophis": 8028,
      "nowaday": 8029,
      "roses": 8030,
      "acre": 8031,
      "ria": 8032,
      "hockey": 8033,
      "lob": 8034,
      "vern": 8035,
      "...!": 8036,
      "geor": 8037,
      "cooperation": 8038,
      "ading": 8039,
      "nee": 8040,
      "tible": 8041,
      "lyde": 8042,
      "und": 8043,
      "mod": 8044,
      "mos": 8045,
      "imperial": 8046,
      "amateur": 8047,
      "depressed": 8048,
      "cale": 8049,
      "herr": 8050,
      "shrink": 8051,
      "worship": 8052,
      "indians": 8053,
      "bomber": 8054,
      "expand": 8055,
      "compen": 8056,
      "daylight": 8057,
      "perry": 8058,
      "offensive": 8059,
      "entit": 8060,
      "istics": 8061,
      "scrap": 8062,
      "brag": 8063,
      "newly": 8064,
      "thankful": 8065,
      "drun": 8066,
      "tryin": 8067,
      "aked": 8068,
      "luis": 8069,
      "carpet": 8070,
      "mona": 8071,
      "mons": 8072,
      "paige": 8073,
      "porno": 8074,
      "ptic": 8075,
      "watson": 8076,
      "creation": 8077,
      "corps": 8078,
      "shack": 8079,
      "missions": 8080,
      "missiles": 8081,
      "brend": 8082,
      "helle": 8083,
      "blake": 8084,
      "finn": 8085,
      "listed": 8086,
      "remembers": 8087,
      "sensors": 8088,
      "partial": 8089,
      "smash": 8090,
      "juan": 8091,
      "prices": 8092,
      "crab": 8093,
      "cursed": 8094,
      "sweating": 8095,
      "vicious": 8096,
      "viewing": 8097,
      "drops": 8098,
      "denied": 8099,
      "freezing": 8100,
      "couples": 8101,
      "oping": 8102,
      "policeman": 8103,
      "appetite": 8104,
      "magne": 8105,
      "spoon": 8106,
      "followers": 8107,
      "sunny": 8108,
      "sunshine": 8109,
      "fairly": 8110,
      "sells": 8111,
      "factor": 8112,
      "cleaner": 8113,
      "password": 8114,
      "michelle": 8115,
      "burt": 8116,
      "passengers": 8117,
      "transform": 8118,
      "transmit": 8119,
      "radar": 8120,
      "vanessa": 8121,
      "rolled": 8122,
      "satan": 8123,
      "continent": 8124,
      "growth": 8125,
      "communist": 8126,
      "groups": 8127,
      "dragons": 8128,
      "owes": 8129,
      "planets": 8130,
      "hatch": 8131,
      "snuck": 8132,
      "unemploy": 8133,
      "discussing": 8134,
      "possibilities": 8135,
      "christopher": 8136,
      "collar": 8137,
      "fantas": 8138,
      "scarf": 8139,
      "celebrity": 8140,
      "grades": 8141,
      "correctly": 8142,
      "trading": 8143,
      "buster": 8144,
      "terminal": 8145,
      "hostages": 8146,
      "electro": 8147,
      "sources": 8148,
      "amend": 8149,
      "rumor": 8150,
      "fifteen": 8151,
      "vari": 8152,
      "constit": 8153,
      "gratitude": 8154,
      "buttons": 8155,
      "civilians": 8156,
      "nancy": 8157,
      "association": 8158,
      "attempted": 8159,
      "screams": 8160,
      "technical": 8161,
      "approaching": 8162,
      "elliot": 8163,
      "vulnerable": 8164,
      "twisted": 8165,
      "compromise": 8166,
      "vigil": 8167,
      "electrical": 8168,
      "electricity": 8169,
      "economic": 8170,
      "coordinates": 8171,
      "distracted": 8172,
      "chapter": 8173,
      "brooklyn": 8174,
      "crushed": 8175,
      "egyp": 8176,
      "domestic": 8177,
      "puzzle": 8178,
      "dinosaur": 8179,
      "inherit": 8180,
      "matthew": 8181,
      "grunts": 8182,
      "eagle": 8183,
      "conflict": 8184,
      "canceled": 8185,
      "philip": 8186,
      "dwight": 8187,
      "doyle": 8188,
      "caesar": 8189,
      "umbrella": 8190,
      "naomi": 8191,
      "sophistic": 8192,
      "nowadays": 8193,
      "\"\"": 8194,
      "##": 8195,
      ")}": 8196,
      "ae": 8197,
      "bc": 8198,
      "cind": 8199,
      "ees": 8200,
      "groom": 8201,
      "kitt": 8202,
      "kling": 8203,
      "lished": 8204,
      "mck": 8205,
      "nab": 8206,
      "pitt": 8207,
      "praise": 8208,
      "shad": 8209,
      "slu": 8210,
      "sandy": 8211,
      "tart": 8212,
      "turing": 8213,
      "uel": 8214,
      "uary": 8215,
      "uals": 8216,
      "vick": 8217,
      "yer": 8218,
      "yum": 8219,
      "zes": 8220,
      "rem": 8221,
      "rev": 8222,
      "rese": 8223,
      "reconsider": 8224,
      "rebel": 8225,
      "thel": 8226,
      "thet": 8227,
      "theories": 8228,
      "erase": 8229,
      "ingu": 8230,
      "ingly": 8231,
      "meas": 8232,
      "melan": 8233,
      "itz": 8234,
      "orgas": 8235,
      "nolan": 8236,
      "stir": 8237,
      "sew": 8238,
      "lease": 8239,
      "lethal": 8240,
      "wendy": 8241,
      "assess": 8242,
      "whale": 8243,
      "edgar": 8244,
      "envy": 8245,
      "hale": 8246,
      "alic": 8247,
      "accompany": 8248,
      "acular": 8249,
      "actors": 8250,
      "wick": 8251,
      "essed": 8252,
      "lod": 8253,
      "locks": 8254,
      "georg": 8255,
      "neat": 8256,
      "chart": 8257,
      "chlor": 8258,
      "ablo": 8259,
      "unhappy": 8260,
      "mold": 8261,
      "butler": 8262,
      "butcher": 8263,
      "imated": 8264,
      "feast": 8265,
      "deer": 8266,
      "pest": 8267,
      "ceo": 8268,
      "urine": 8269,
      "urban": 8270,
      "calend": 8271,
      "pover": 8272,
      "plea": 8273,
      "sailing": 8274,
      "illusion": 8275,
      "ainted": 8276,
      "trum": 8277,
      "plu": 8278,
      "plor": 8279,
      "confront": 8280,
      "backing": 8281,
      "extract": 8282,
      "ohh": 8283,
      "elbow": 8284,
      "presu": 8285,
      "igan": 8286,
      "quant": 8287,
      "quinn": 8288,
      "spray": 8289,
      "spike": 8290,
      "tails": 8291,
      "chew": 8292,
      "foreman": 8293,
      "marke": 8294,
      "martial": 8295,
      "div": 8296,
      "morris": 8297,
      "drone": 8298,
      "monkeys": 8299,
      "brody": 8300,
      "phony": 8301,
      "disable": 8302,
      "resting": 8303,
      "closes": 8304,
      "matri": 8305,
      "hijack": 8306,
      "corrupt": 8307,
      "iselle": 8308,
      "auction": 8309,
      "blocked": 8310,
      "meds": 8311,
      "situations": 8312,
      "surg": 8313,
      "lesbian": 8314,
      "otes": 8315,
      "paras": 8316,
      "contam": 8317,
      "despair": 8318,
      "july": 8319,
      "babylon": 8320,
      "beds": 8321,
      "nora": 8322,
      "hunger": 8323,
      "evans": 8324,
      "interpret": 8325,
      "obst": 8326,
      "tress": 8327,
      "sweater": 8328,
      "harbor": 8329,
      "cries": 8330,
      "horny": 8331,
      "gunshot": 8332,
      "dana": 8333,
      "mikey": 8334,
      "mercedes": 8335,
      "risky": 8336,
      "husbands": 8337,
      "entials": 8338,
      "blackmail": 8339,
      "graham": 8340,
      "magn": 8341,
      "jae": 8342,
      "sushi": 8343,
      "specialist": 8344,
      "profound": 8345,
      "malcolm": 8346,
      "lina": 8347,
      "camping": 8348,
      "responding": 8349,
      "burke": 8350,
      "milton": 8351,
      "distant": 8352,
      "passage": 8353,
      "passenger": 8354,
      "judges": 8355,
      "transplant": 8356,
      "tracked": 8357,
      "mouths": 8358,
      "hallelu": 8359,
      "robbing": 8360,
      "clap": 8361,
      "experiments": 8362,
      "thesis": 8363,
      "bathtub": 8364,
      "shortly": 8365,
      "annual": 8366,
      "dolls": 8367,
      "boost": 8368,
      "benny": 8369,
      "ancestors": 8370,
      "blair": 8371,
      "griffin": 8372,
      "recognise": 8373,
      "sealed": 8374,
      "winds": 8375,
      "partnership": 8376,
      "depending": 8377,
      "equally": 8378,
      "credentials": 8379,
      "bonus": 8380,
      "nicky": 8381,
      "freaks": 8382,
      "avenue": 8383,
      "crowded": 8384,
      "tractor": 8385,
      "existed": 8386,
      "terrorism": 8387,
      "graphic": 8388,
      "illeg": 8389,
      "strikes": 8390,
      "psychological": 8391,
      "soccer": 8392,
      "vengeance": 8393,
      "adopted": 8394,
      "activate": 8395,
      "marshal": 8396,
      "geez": 8397,
      "intelle": 8398,
      "lindsay": 8399,
      "pyram": 8400,
      "disturbing": 8401,
      "circles": 8402,
      "scares": 8403,
      "principle": 8404,
      "duncan": 8405,
      "collecting": 8406,
      "traumatic": 8407,
      "nigga": 8408,
      "adorable": 8409,
      "katie": 8410,
      "advise": 8411,
      "pirate": 8412,
      "pacific": 8413,
      "companion": 8414,
      "hawk": 8415,
      "predictable": 8416,
      "korean": 8417,
      "cotton": 8418,
      "strategy": 8419,
      "traditional": 8420,
      "knives": 8421,
      "wandering": 8422,
      "models": 8423,
      "objective": 8424,
      "prophet": 8425,
      "chandler": 8426,
      "administration": 8427,
      "sophie": 8428,
      "institution": 8429,
      "accomplished": 8430,
      "egypt": 8431,
      "plumber": 8432,
      "doubts": 8433,
      "bounty": 8434,
      "wrestling": 8435,
      "blanket": 8436,
      "remarkable": 8437,
      "potatoes": 8438,
      "probation": 8439,
      "israel": 8440,
      "olym": 8441,
      "elephant": 8442,
      "politicians": 8443,
      "robots": 8444,
      "circuit": 8445,
      "battles": 8446,
      "suspended": 8447,
      "refrigerator": 8448,
      "anthony": 8449,
      "civilization": 8450,
      "cancelled": 8451,
      "intrigu": 8452,
      "choosing": 8453,
      "hawaii": 8454,
      "precinct": 8455,
      "manifest": 8456,
      "guidance": 8457,
      "hallelujah": 8458,
      "aj": 8459,
      "bil": 8460,
      "bunk": 8461,
      "eun": 8462,
      "gle": 8463,
      "gap": 8464,
      "gau": 8465,
      "glit": 8466,
      "gwen": 8467,
      "hust": 8468,
      "hick": 8469,
      "hint": 8470,
      "hump": 8471,
      "hilar": 8472,
      "jade": 8473,
      "kh": 8474,
      "knights": 8475,
      "mild": 8476,
      "nip": 8477,
      "oph": 8478,
      "ology": 8479,
      "rut": 8480,
      "rally": 8481,
      "sworn": 8482,
      "tang": 8483,
      "tane": 8484,
      "vacc": 8485,
      "wright": 8486,
      "wink": 8487,
      "wret": 8488,
      "yd": 8489,
      "ypse": 8490,
      "thi": 8491,
      "inse": 8492,
      "info": 8493,
      "rever": 8494,
      "rena": 8495,
      "regi": 8496,
      "refresh": 8497,
      "anom": 8498,
      "anthro": 8499,
      "onica": 8500,
      "tomy": 8501,
      "nod": 8502,
      "stunt": 8503,
      "leaf": 8504,
      "webs": 8505,
      "artie": 8506,
      "beans": 8507,
      "behold": 8508,
      "asia": 8509,
      "oft": 8510,
      "ofthe": 8511,
      "encoun": 8512,
      "haley": 8513,
      "goth": 8514,
      "dos": 8515,
      "dox": 8516,
      "alfred": 8517,
      "allah": 8518,
      "soever": 8519,
      "lican": 8520,
      "aco": 8521,
      "acious": 8522,
      "rivers": 8523,
      "rigged": 8524,
      "escap": 8525,
      "forged": 8526,
      "forcing": 8527,
      "nev": 8528,
      "withdraw": 8529,
      "canal": 8530,
      "unto": 8531,
      "imm": 8532,
      "usa": 8533,
      "feared": 8534,
      "dea": 8535,
      "dell": 8536,
      "caval": 8537,
      "caution": 8538,
      "polar": 8539,
      "shiny": 8540,
      "manny": 8541,
      "gulf": 8542,
      "agend": 8543,
      "confron": 8544,
      "conclu": 8545,
      "timeline": 8546,
      "articles": 8547,
      "backed": 8548,
      "backyard": 8549,
      "explor": 8550,
      "commen": 8551,
      "permit": 8552,
      "fog": 8553,
      "foss": 8554,
      "needing": 8555,
      "provid": 8556,
      "quis": 8557,
      "epic": 8558,
      "redding": 8559,
      "scra": 8560,
      "spa": 8561,
      "happiest": 8562,
      "chell": 8563,
      "chewing": 8564,
      "marc": 8565,
      "marsh": 8566,
      "reads": 8567,
      "dip": 8568,
      "diary": 8569,
      "itement": 8570,
      "waking": 8571,
      "fierce": 8572,
      "carries": 8573,
      "lasts": 8574,
      "torped": 8575,
      "portal": 8576,
      "cleve": 8577,
      "writ": 8578,
      "trucks": 8579,
      "rug": 8580,
      "stuart": 8581,
      "corrid": 8582,
      "blur": 8583,
      "athlet": 8584,
      "nicely": 8585,
      "para": 8586,
      "stray": 8587,
      "brotherhood": 8588,
      "charging": 8589,
      "lighting": 8590,
      "chal": 8591,
      "gaze": 8592,
      "tense": 8593,
      "ankle": 8594,
      "appre": 8595,
      "craig": 8596,
      "cyber": 8597,
      "drivers": 8598,
      "autumn": 8599,
      "warden": 8600,
      "cessor": 8601,
      "shipment": 8602,
      "intercept": 8603,
      "obsession": 8604,
      "calypse": 8605,
      "logic": 8606,
      "logically": 8607,
      "logists": 8608,
      "hitch": 8609,
      "painter": 8610,
      "ordering": 8611,
      "fastest": 8612,
      "speaker": 8613,
      "shutting": 8614,
      "starfleet": 8615,
      "protein": 8616,
      "mush": 8617,
      "muslim": 8618,
      "destination": 8619,
      "spoiled": 8620,
      "bailey": 8621,
      "sunset": 8622,
      "elected": 8623,
      "pressing": 8624,
      "jai": 8625,
      "controls": 8626,
      "ferti": 8627,
      "locking": 8628,
      "explaining": 8629,
      "legacy": 8630,
      "cooler": 8631,
      "trains": 8632,
      "haircut": 8633,
      "burgers": 8634,
      "tucker": 8635,
      "sickness": 8636,
      "spectacular": 8637,
      "pursuit": 8638,
      "purchase": 8639,
      "salvation": 8640,
      "defence": 8641,
      "filming": 8642,
      "floors": 8643,
      "grams": 8644,
      "volume": 8645,
      "raymond": 8646,
      "arrives": 8647,
      "practical": 8648,
      "detect": 8649,
      "crop": 8650,
      "loads": 8651,
      "producer": 8652,
      "producing": 8653,
      "cups": 8654,
      "travelling": 8655,
      "exploded": 8656,
      "iike": 8657,
      "recognition": 8658,
      "wakes": 8659,
      "humble": 8660,
      "generate": 8661,
      "mcgee": 8662,
      "equi": 8663,
      "delusion": 8664,
      "shirts": 8665,
      "chairs": 8666,
      "hannibal": 8667,
      "cracker": 8668,
      "turtle": 8669,
      "tourist": 8670,
      "isaac": 8671,
      "framed": 8672,
      "diction": 8673,
      "gory": 8674,
      "opportun": 8675,
      "expense": 8676,
      "titan": 8677,
      "romeo": 8678,
      "described": 8679,
      "settlement": 8680,
      "debbie": 8681,
      "characters": 8682,
      "interviews": 8683,
      "materials": 8684,
      "indicates": 8685,
      "analyze": 8686,
      "delivering": 8687,
      "puppies": 8688,
      "motherfuckers": 8689,
      "linked": 8690,
      "replacement": 8691,
      "conviction": 8692,
      "inspection": 8693,
      "suspicion": 8694,
      "declare": 8695,
      "ellie": 8696,
      "thrilled": 8697,
      "industries": 8698,
      "bartender": 8699,
      "vulcan": 8700,
      "journalist": 8701,
      "objection": 8702,
      "published": 8703,
      "retirement": 8704,
      "organs": 8705,
      "sophia": 8706,
      "lifting": 8707,
      "mortgage": 8708,
      "sacrificed": 8709,
      "diagnosis": 8710,
      "devastated": 8711,
      "accusing": 8712,
      "dedicated": 8713,
      "advertising": 8714,
      "aisle": 8715,
      "narrator": 8716,
      "contrary": 8717,
      "architect": 8718,
      "transporter": 8719,
      "grasp": 8720,
      "neutral": 8721,
      "metaphor": 8722,
      "einstein": 8723,
      "eighth": 8724,
      "historic": 8725,
      "morphine": 8726,
      "sophisticated": 8727,
      "calendar": 8728,
      "'...": 8729,
      ".!": 8730,
      "_bar": 8731,
      "bind": 8732,
      "bach": 8733,
      "bounce": 8734,
      "cence": 8735,
      "dwar": 8736,
      "fis": 8737,
      "fled": 8738,
      "fries": 8739,
      "gurt": 8740,
      "jaf": 8741,
      "kr": 8742,
      "mps": 8743,
      "nations": 8744,
      "pablo": 8745,
      "swa": 8746,
      "snat": 8747,
      "tad": 8748,
      "tink": 8749,
      "ua": 8750,
      "wag": 8751,
      "wah": 8752,
      "wank": 8753,
      "thigh": 8754,
      "incl": 8755,
      "infer": 8756,
      "reform": 8757,
      "reacting": 8758,
      "antha": 8759,
      "atom": 8760,
      "attempting": 8761,
      "tow": 8762,
      "mea": 8763,
      "mete": 8764,
      "itate": 8765,
      "itated": 8766,
      "ori": 8767,
      "noises": 8768,
      "stiff": 8769,
      "semin": 8770,
      "sels": 8771,
      "secured": 8772,
      "lever": 8773,
      "asm": 8774,
      "hamm": 8775,
      "alison": 8776,
      "almighty": 8777,
      "allies": 8778,
      "liking": 8779,
      "liest": 8780,
      "lions": 8781,
      "rogate": 8782,
      "whatsoever": 8783,
      "hog": 8784,
      "hobby": 8785,
      "outer": 8786,
      "cod": 8787,
      "nearest": 8788,
      "abra": 8789,
      "abroad": 8790,
      "absence": 8791,
      "tiff": 8792,
      "unpleasant": 8793,
      "antis": 8794,
      "moiselle": 8795,
      "imper": 8796,
      "somewhat": 8797,
      "uss": 8798,
      "tels": 8799,
      "det": 8800,
      "pets": 8801,
      "caf": 8802,
      "poll": 8803,
      "mans": 8804,
      "suf": 8805,
      "bosses": 8806,
      "concus": 8807,
      "conrad": 8808,
      "concrete": 8809,
      "wheat": 8810,
      "leton": 8811,
      "exor": 8812,
      "compre": 8813,
      "compress": 8814,
      "perfu": 8815,
      "offers": 8816,
      "preced": 8817,
      "igner": 8818,
      "istry": 8819,
      "springs": 8820,
      "failing": 8821,
      "bris": 8822,
      "cheering": 8823,
      "bets": 8824,
      "dime": 8825,
      "thoughtful": 8826,
      "luci": 8827,
      "carla": 8828,
      "mono": 8829,
      "mones": 8830,
      "disgrace": 8831,
      "writes": 8832,
      "server": 8833,
      "homeland": 8834,
      "kindly": 8835,
      "pengu": 8836,
      "sham": 8837,
      "shade": 8838,
      "triple": 8839,
      "trials": 8840,
      "tricked": 8841,
      "careless": 8842,
      "mademoiselle": 8843,
      "blah": 8844,
      "sia": 8845,
      "warren": 8846,
      "paraly": 8847,
      "smur": 8848,
      "juana": 8849,
      "stell": 8850,
      "stepping": 8851,
      "baron": 8852,
      "hurri": 8853,
      "applied": 8854,
      "facebook": 8855,
      "pointless": 8856,
      "wardrobe": 8857,
      "obtain": 8858,
      "decides": 8859,
      "breakdown": 8860,
      "patron": 8861,
      "harass": 8862,
      "fireworks": 8863,
      "towns": 8864,
      "excitement": 8865,
      "cub": 8866,
      "horns": 8867,
      "fication": 8868,
      "climbed": 8869,
      "elements": 8870,
      "questioned": 8871,
      "bribe": 8872,
      "colony": 8873,
      "paste": 8874,
      "samantha": 8875,
      "phoen": 8876,
      "struct": 8877,
      "distingu": 8878,
      "gypsy": 8879,
      "grounded": 8880,
      "flint": 8881,
      "scotch": 8882,
      "pursue": 8883,
      "salv": 8884,
      "hydro": 8885,
      "radius": 8886,
      "directions": 8887,
      "ibility": 8888,
      "wooden": 8889,
      "courtesy": 8890,
      "approxim": 8891,
      "connections": 8892,
      "investigator": 8893,
      "apocalypse": 8894,
      "bankrupt": 8895,
      "yoga": 8896,
      "yogurt": 8897,
      "kov": 8898,
      "tara": 8899,
      "groans": 8900,
      "finishing": 8901,
      "bombing": 8902,
      "panel": 8903,
      "panties": 8904,
      "grim": 8905,
      "grip": 8906,
      "bravo": 8907,
      "crossing": 8908,
      "slice": 8909,
      "magician": 8910,
      "rocky": 8911,
      "feds": 8912,
      "federation": 8913,
      "extended": 8914,
      "rics": 8915,
      "cracked": 8916,
      "organic": 8917,
      "reporters": 8918,
      "physics": 8919,
      "violet": 8920,
      "ricky": 8921,
      "celebration": 8922,
      "celebrating": 8923,
      "kisses": 8924,
      "implic": 8925,
      "anticip": 8926,
      "silk": 8927,
      "cheek": 8928,
      "jammed": 8929,
      "swamp": 8930,
      "flames": 8931,
      "stalker": 8932,
      "stabili": 8933,
      "losers": 8934,
      "servants": 8935,
      "freddy": 8936,
      "negle": 8937,
      "ritual": 8938,
      "indication": 8939,
      "regards": 8940,
      "rushing": 8941,
      "anderson": 8942,
      "betrayal": 8943,
      "whispering": 8944,
      "qualified": 8945,
      "habits": 8946,
      "january": 8947,
      "executive": 8948,
      "affects": 8949,
      "associate": 8950,
      "december": 8951,
      "briefing": 8952,
      "arrangements": 8953,
      "increased": 8954,
      "shields": 8955,
      "bonds": 8956,
      "leaked": 8957,
      "trailer": 8958,
      "assaulted": 8959,
      "violation": 8960,
      "pirates": 8961,
      "combined": 8962,
      "combination": 8963,
      "products": 8964,
      "junkie": 8965,
      "bumped": 8966,
      "abortion": 8967,
      "fascinating": 8968,
      "baker": 8969,
      "greetings": 8970,
      "fabulous": 8971,
      "volunteer": 8972,
      "volunteers": 8973,
      "instincts": 8974,
      "isolated": 8975,
      "manipulate": 8976,
      "graduate": 8977,
      "accomplish": 8978,
      "feathers": 8979,
      "fracture": 8980,
      "frequency": 8981,
      "rhyth": 8982,
      "evolution": 8983,
      "preparing": 8984,
      "hesitate": 8985,
      "awaken": 8986,
      "zombie": 8987,
      "retarded": 8988,
      "stadium": 8989,
      "noodles": 8990,
      "processed": 8991,
      "hysterical": 8992,
      "physician": 8993,
      "historical": 8994,
      "interfere": 8995,
      "chemistry": 8996,
      "dallas": 8997,
      "cindy": 8998,
      "alicia": 8999,
      "olympic": 9000,
      "vaccine": 9001,
      "agenda": 9002,
      "opportunities": 9003,
      "approximately": 9004,
      "bake": 9005,
      "bah": 9006,
      "bish": 9007,
      "bau": 9008,
      "clyde": 9009,
      "dc": 9010,
      "dash": 9011,
      "ee": 9012,
      "fs": 9013,
      "fers": 9014,
      "fang": 9015,
      "fts": 9016,
      "hic": 9017,
      "ivy": 9018,
      "jig": 9019,
      "kal": 9020,
      "kry": 9021,
      "mim": 9022,
      "mack": 9023,
      "maf": 9024,
      "nay": 9025,
      "pend": 9026,
      "pave": 9027,
      "rh": 9028,
      "rake": 9029,
      "rine": 9030,
      "sway": 9031,
      "swed": 9032,
      "tide": 9033,
      "treme": 9034,
      "troll": 9035,
      "wid": 9036,
      "waf": 9037,
      "xia": 9038,
      "yang": 9039,
      "zan": 9040,
      "zack": 9041,
      "zie": 9042,
      "zip": 9043,
      "thrust": 9044,
      "infr": 9045,
      "incoming": 9046,
      "infil": 9047,
      "infli": 9048,
      "injection": 9049,
      "reid": 9050,
      "rede": 9051,
      "reign": 9052,
      "resent": 9053,
      "rels": 9054,
      "restore": 9055,
      "resurre": 9056,
      "towers": 9057,
      "errand": 9058,
      "isc": 9059,
      "isation": 9060,
      "heim": 9061,
      "nomin": 9062,
      "andro": 9063,
      "aring": 9064,
      "bea": 9065,
      "bei": 9066,
      "asset": 9067,
      "asian": 9068,
      "eder": 9069,
      "halt": 9070,
      "hacked": 9071,
      "goog": 9072,
      "altar": 9073,
      "ros": 9074,
      "rober": 9075,
      "ribs": 9076,
      "rifles": 9077,
      "ldon": 9078,
      "wired": 9079,
      "hose": 9080,
      "lov": 9081,
      "loaf": 9082,
      "veronica": 9083,
      "outrage": 9084,
      "aby": 9085,
      "tified": 9086,
      "unstable": 9087,
      "iris": 9088,
      "mock": 9089,
      "moist": 9090,
      "teles": 9091,
      "amin": 9092,
      "amor": 9093,
      "ambi": 9094,
      "dez": 9095,
      "detro": 9096,
      "dearest": 9097,
      "peep": 9098,
      "pered": 9099,
      "pelled": 9100,
      "hercu": 9101,
      "saus": 9102,
      "ppin": 9103,
      "willy": 9104,
      "willie": 9105,
      "lett": 9106,
      "expo": 9107,
      "extermin": 9108,
      "pervert": 9109,
      "ctual": 9110,
      "scul": 9111,
      "scoffs": 9112,
      "stove": 9113,
      "spies": 9114,
      "brat": 9115,
      "brandon": 9116,
      "marina": 9117,
      "prank": 9118,
      "mines": 9119,
      "minim": 9120,
      "carto": 9121,
      "caring": 9122,
      "carrier": 9123,
      "theirs": 9124,
      "pau": 9125,
      "pause": 9126,
      "lasted": 9127,
      "phia": 9128,
      "standby": 9129,
      "ports": 9130,
      "closure": 9131,
      "ruby": 9132,
      "creator": 9133,
      "tribe": 9134,
      "frances": 9135,
      "missus": 9136,
      "missile": 9137,
      "dub": 9138,
      "badass": 9139,
      "vian": 9140,
      "viable": 9141,
      "sip": 9142,
      "attic": 9143,
      "chopper": 9144,
      "parall": 9145,
      "smoked": 9146,
      "countless": 9147,
      "strand": 9148,
      "lighten": 9149,
      "stella": 9150,
      "sleeve": 9151,
      "borne": 9152,
      "pointed": 9153,
      "formula": 9154,
      "rented": 9155,
      "rental": 9156,
      "committing": 9157,
      "ashley": 9158,
      "aircraft": 9159,
      "hearted": 9160,
      "observation": 9161,
      "treason": 9162,
      "decade": 9163,
      "patty": 9164,
      "businessman": 9165,
      "skies": 9166,
      "gio": 9167,
      "numer": 9168,
      "freder": 9169,
      "stressed": 9170,
      "horiz": 9171,
      "dancers": 9172,
      "mills": 9173,
      "travis": 9174,
      "spock": 9175,
      "spots": 9176,
      "sung": 9177,
      "eleg": 9178,
      "bully": 9179,
      "confuse": 9180,
      "confessed": 9181,
      "ferr": 9182,
      "queens": 9183,
      "lockdown": 9184,
      "hangs": 9185,
      "specialty": 9186,
      "faction": 9187,
      "facilities": 9188,
      "nicole": 9189,
      "secretly": 9190,
      "flex": 9191,
      "presentation": 9192,
      "purposes": 9193,
      "drugged": 9194,
      "rades": 9195,
      "vanished": 9196,
      "striking": 9197,
      "douglas": 9198,
      "favors": 9199,
      "franken": 9200,
      "guarding": 9201,
      "approached": 9202,
      "tables": 9203,
      "flynn": 9204,
      "hence": 9205,
      "arriving": 9206,
      "posted": 9207,
      "recipe": 9208,
      "travels": 9209,
      "blamed": 9210,
      "grieving": 9211,
      "gala": 9212,
      "acceptable": 9213,
      "zzo": 9214,
      "instant": 9215,
      "matching": 9216,
      "ronnie": 9217,
      "bastian": 9218,
      "races": 9219,
      "maximum": 9220,
      "bowling": 9221,
      "crucial": 9222,
      "extend": 9223,
      "remained": 9224,
      "bearable": 9225,
      "equation": 9226,
      "labs": 9227,
      "rotting": 9228,
      "opponent": 9229,
      "fortunately": 9230,
      "wilder": 9231,
      "teenager": 9232,
      "rapid": 9233,
      "claiming": 9234,
      "cocktail": 9235,
      "hostile": 9236,
      "regul": 9237,
      "candles": 9238,
      "cousins": 9239,
      "sympathy": 9240,
      "variety": 9241,
      "peek": 9242,
      "shameless": 9243,
      "instruments": 9244,
      "titles": 9245,
      "meaningless": 9246,
      "engineer": 9247,
      "mutant": 9248,
      "adams": 9249,
      "daniels": 9250,
      "adoption": 9251,
      "activities": 9252,
      "projects": 9253,
      "printed": 9254,
      "bidding": 9255,
      "philadel": 9256,
      "curiosity": 9257,
      "continuing": 9258,
      "audio": 9259,
      "bunny": 9260,
      "ffet": 9261,
      "represents": 9262,
      "principles": 9263,
      "associated": 9264,
      "negotiations": 9265,
      "vehicles": 9266,
      "melissa": 9267,
      "asylum": 9268,
      "guaranteed": 9269,
      "repent": 9270,
      "jonas": 9271,
      "passionate": 9272,
      "pierre": 9273,
      "pierce": 9274,
      "corporal": 9275,
      "reynold": 9276,
      "tasty": 9277,
      "transportation": 9278,
      "measures": 9279,
      "hypothet": 9280,
      "established": 9281,
      "mechanism": 9282,
      "candidates": 9283,
      "muscles": 9284,
      "bracelet": 9285,
      "chambers": 9286,
      "junction": 9287,
      "fragile": 9288,
      "counseling": 9289,
      "alleged": 9290,
      "academic": 9291,
      "institute": 9292,
      "granny": 9293,
      "doubted": 9294,
      "referring": 9295,
      "allergic": 9296,
      "essentially": 9297,
      "luxury": 9298,
      "substance": 9299,
      "surprisingly": 9300,
      "inspiration": 9301,
      "eliminate": 9302,
      "fidel": 9303,
      "juris": 9304,
      "boobs": 9305,
      "exhausted": 9306,
      "overwhelming": 9307,
      "astronaut": 9308,
      "conventional": 9309,
      "cinema": 9310,
      "hastings": 9311,
      "rescued": 9312,
      "sniper": 9313,
      "intimate": 9314,
      "skirt": 9315,
      "intruder": 9316,
      "dramatic": 9317,
      "pudding": 9318,
      "theatre": 9319,
[...]
